▁. 172589
▁، 116286
▁في 98814
▁, 93810
▁من 91156
▁die 56304
ية 55302
▁على 52873
▁أن 50702
ر 49562
▁الم 48171
ي 47888
ه 46725
▁der 45691
ات 45182
ع 43890
▁م 43708
ت 42702
▁ت 42647
ب 41874
▁und 39803
د 38569
ها 38428
ين 36368
ق 35765
▁إلى 35732
▁ب 35294
ح 35051
ة 33403
▁و 33343
ل 32530
م 32082
▁ي 31972
ن 31827
ج 31739
ف 31586
س 30633
ك 30092
▁الأ 29150
▁أ 29115
و 29105
▁ل 28725
ط 28191
ا 28149
ون 28064
▁الت 26512
ار 26491
▁وال 26275
ش 26234
▁zu 25138
en 24382
▁in 23853
ان 23825
▁ن 23508
ال 22669
خ 22272
ز 22164
ض 22113
ام 22089
ص 21583
▁ف 21413
▁ح 21200
quot 20886
ير 20774
▁التي 20730
; 20458
▁& 20456
▁ق 20059
▁ال 19787
نا 19531
اد 19304
ث 19291
▁الح 18734
▁س 18652
هم 18327
▁إ 18200
اً 18057
▁لل 18051
▁den 17354
اب 17149
▁ك 17128
▁ع 16697
يا 16264
غ 16146
te 16033
▁عن 15788
▁الق 15429
ten 15375
ور 15300
ول 15292
▁مع 15080
t 15038
er 15025
وا 14997
▁von 14948
▁ 14857
ري 14777
يد 14756
- 14730
رة 14550
▁ش 14451
ung 14196
▁الإ 14012
▁ج 13785
▁الع 13766
▁بال 13555
را 13443
▁ما 13391
▁هذا 13276
k 12879
ما 12828
لا 12765
▁auf 12713
▁الس 12612
▁لا 12414
▁الب 12314
s 12273
أ 12200
▁ist 12174
ائ 12163
اء 12131
▁هذه 11943
▁الف 11933
اس 11755
ود 11422
ظ 11367
ذ 11297
▁أو 11192
مة 11172
▁das 11172
▁ان 11157
▁الن 11122
لة 11103
▁الذي 11079
▁sich 10997
▁د 10934
▁ذلك 10843
▁الص 10836
▁für 10799
▁eine 10771
▁إن 10741
▁– 10639
▁ص 10604
▁المت 10546
عة 10489
▁ولكن 10378
▁الك 10327
▁ein 10319
▁dass 10315
▁des 10307
▁قد 10297
▁ر 10189
ئ 10167
▁الد 10158
▁كان 10093
▁خ 10043
وف 10014
▁) 9977
تم 9975
▁المتحدة 9955
▁( 9948
يل 9912
▁لم 9839
▁وت 9803
رب 9753
▁nicht 9700
▁K 9638
ى 9617
▁يت 9586
عد 9540
▁ــ 9481
▁الج 9456
▁الش 9452
▁فإن 9439
f 9217
لي 9203
يم 9194
▁ver 8961
▁عام 8933
▁an 8869
▁mit 8774
e 8735
gen 8696
اق 8630
اج 8618
حة 8549
مل 8504
عل 8492
▁بين 8464
▁als 8312
رض 8273
▁است 8272
اف 8198
▁الر 8176
بر 8155
في 8126
وب 8122
▁Die 8079
▁im 8040
g 8034
يات 8020
▁ط 7886
▁: 7843
ungen 7748
قد 7741
▁تع 7698
وي 7674
▁es 7652
وم 7582
ست 7568
▁الخ 7522
m 7438
▁تت 7429
▁um 7323
َ 7319
قة 7233
▁aus 7180
اع 7176
▁ا 7156
▁sie 7146
▁Ver 7073
z 7064
▁% 7008
▁S 7005
▁غير 7005
▁الأم 6993
يين 6965
▁über 6929
يع 6923
طة 6921
lich 6912
▁الولايات 6864
رت 6856
▁dem 6849
w 6845
▁er 6786
in 6781
بة 6772
▁وب 6758
من 6723
▁werden 6712
▁الصين 6694
▁ض 6664
▁كل 6648
▁ه 6645
حد 6639
قل 6608
▁المست 6569
الي 6547
▁الط 6538
مر 6525
▁تح 6507
ch 6482
es 6396
ge 6352
st 6345
▁الان 6334
▁كانت 6297
▁M 6250
رك 6182
وق 6155
▁لت 6145
وس 6143
كل 6098
ؤ 6088
ء 6081
راء 6055
le 6019
▁مت 5994
الية 5991
b 5981
▁الأوروبي 5969
ذا 5939
▁W 5938
ند 5931
▁الاست 5930
وة 5901
▁مثل 5879
▁أكثر 5812
▁وأ 5800
▁sind 5753
لم 5745
سب 5723
re 5652
وية 5632
▁يع 5631
▁بل 5626
▁الث 5625
ني 5616
n 5597
▁D 5592
▁B 5568
▁الض 5557
نت 5540
▁wie 5535
▁أي 5522
خل 5499
▁الو 5495
رف 5488
بي 5487
▁hat 5482
شر 5452
ern 5415
▁العالم 5411
قي 5378
▁والم 5355
▁wird 5349
▁einer 5338
ter 5288
وج 5288
هد 5283
وض 5276
حت 5272
▁„ 5249
اني 5223
ig 5198
▁vor 5180
بد 5123
امل 5086
است 5082
el 5081
h 5073
sch 5071
ـ 5069
▁وفي 5059
l 5031
كر 4990
▁ـ 4962
سا 4959
▁H 4944
ä 4937
▁“ 4934
▁An 4929
سي 4926
▁auch 4876
ارات 4870
▁G 4854
▁k 4832
ien 4805
ungs 4800
سم 4792
lichen 4791
u 4788
ادة 4775
ü 4753
عم 4751
▁be 4744
ِ 4726
▁تم 4723
انية 4693
ie 4664
▁ge 4642
▁مج 4641
دة 4637
▁In 4637
▁haben 4613
▁كما 4584
مو 4580
▁durch 4580
▁الآن 4576
ischen 4567
دي 4551
فع 4540
▁بعد 4520
صل 4512
قا 4505
فت 4504
ئة 4479
▁Er 4424
▁خلال 4414
ens 4406
كان 4384
▁الدول 4383
is 4358
▁وي 4341
يف 4335
p 4332
an 4315
▁أس 4312
فا 4296
▁غ 4293
▁وم 4274
▁الاتحاد 4272
▁نحو 4260
▁Ein 4255
▁الأس 4255
▁العمل 4249
▁ومن 4243
▁والت 4238
▁فقد 4236
den 4228
▁هو 4199
▁بشكل 4195
▁N 4193
▁المن 4189
عات 4182
تها 4157
عية 4147
▁العام 4142
اص 4140
▁oder 4134
▁المح 4133
▁بد 4097
الة 4069
▁F 4059
يس 4032
ته 4015
it 4012
عي 4009
▁حتى 4004
ورة 3993
▁مح 3976
▁تق 3971
▁الاقتصاد 3970
al 3969
ثير 3963
ارة 3954
▁سوف 3948
▁einen 3942
▁P 3941
chen 3939
نة 3937
▁مست 3924
▁بم 3899
تي 3891
ُ 3882
عا 3880
o 3870
▁حد 3864
▁R 3860
i 3843
ö 3835
فس 3829
▁حيث 3823
enden 3804
▁T 3778
ende 3766
▁آ 3766
▁الرئيس 3746
ts 3741
▁Z 3736
▁ز 3736
▁يكون 3734
اط 3727
et 3710
وى 3706
▁إذا 3701
▁zur 3692
▁Sch 3690
▁لكن 3689
▁المالية 3674
ياً 3670
▁أخرى 3664
با 3662
▁un 3638
وت 3632
▁يمكن 3630
▁أوروبا 3629
ًا 3626
▁هي 3625
هر 3624
liche 3595
▁E 3588
end 3572
سل 3572
يز 3572
▁unter 3567
كن 3556
▁الأمر 3556
hen 3552
▁تش 3551
ناء 3538
▁ول 3536
▁للت 3533
▁بعض 3525
جم 3524
▁Welt 3516
▁تد 3506
ar 3505
▁so 3493
▁nach 3491
فر 3486
نظ 3472
▁bei 3459
فاق 3457
▁اله 3442
لب 3440
▁L 3432
▁البلدان 3429
▁أع 3425
▁sch 3419
ديد 3414
أس 3404
قر 3403
قت 3400
ولة 3394
رن 3385
دى 3381
▁Be 3379
ur 3367
ische 3350
جا 3349
▁الغ 3339
ben 3334
d 3329
▁ihre 3329
che 3317
صول 3313
at 3306
إ 3306
▁وس 3306
رق 3304
▁تن 3303
▁المر 3293
▁sein 3290
▁einem 3284
▁الا 3278
شار 3274
طل 3273
▁كبير 3265
igen 3262
▁التع 3250
عب 3246
غير 3243
▁سي 3239
em 3233
فق 3227
▁الذين 3227
وك 3217
بل 3199
وات 3199
us 3197
icht 3193
heit 3189
لك 3183
▁السل 3176
▁ث 3168
▁العالمية 3145
un 3140
▁noch 3139
▁wir 3126
▁النا 3122
ste 3110
or 3108
▁w 3108
▁ولا 3094
▁Re 3092
حو 3091
▁للم 3090
▁؟ 3086
um 3057
خص 3052
▁diese 3045
▁mehr 3033
▁بت 3032
▁USA 3019
نية 3015
رد 2997
▁nur 2996
▁وا 2972
▁وهو 2969
▁يست 2966
صر 2965
▁- 2960
▁النمو 2953
kt 2951
▁أم 2943
ere 2940
ثل 2940
▁له 2940
اح 2927
سة 2920
ver 2913
▁خط 2912
▁تر 2911
be 2910
ركة 2910
اري 2901
▁نفس 2897
▁مما 2887
▁بن 2877
▁سياس 2876
▁وقد 2876
▁إلا 2875
▁حين 2871
▁؛ 2862
▁المد 2862
▁ab 2856
راً 2855
حي 2854
▁العالمي 2852
ساعد 2842
وع 2842
▁المج 2840
▁بح 2840
▁والتي 2838
▁المع 2828
▁Aus 2827
صد 2824
he 2822
▁لن 2821
زمة 2818
عين 2811
▁الل 2801
ri 2798
واجه 2793
▁وك 2790
tig 2771
جل 2771
لس 2771
▁قبل 2768
ers 2767
▁التح 2764
. 2763
▁العديد 2748
فض 2747
لف 2747
كت 2741
▁/ 2740
▁تكون 2731
زم 2730
تص 2729
▁ليس 2729
▁wenn 2728
راض 2724
فة 2719
▁man 2719
▁المس 2714
tigen 2713
رات 2711
▁تست 2708
and 2706
انيا 2700
de 2689
eren 2685
قبل 2685
▁z 2679
▁war 2673
▁الإن 2666
قدم 2659
▁لأ 2655
▁الدولي 2650
▁تج 2644
جة 2641
r 2640
sen 2638
غم 2637
خر 2622
▁تأ 2618
شت 2617
▁هناك 2610
▁وأن 2603
ظم 2598
▁الاقتصادي 2595
▁ذات 2585
كي 2574
كم 2572
جز 2568
هي 2568
نب 2565
▁ست 2560
لى 2547
▁مق 2545
▁الوقت 2542
لاً 2540
il 2535
▁عندما 2532
ut 2527
se 2526
ach 2523
▁Vor 2515
▁V 2514
إن 2512
يرة 2509
خت 2505
ذلك 2503
▁يتم 2498
وط 2496
▁مؤ 2493
der 2489
ارت 2483
ثة 2482
يو 2477
we 2474
▁وعلى 2459
▁Der 2454
▁لقد 2453
ieren 2449
▁d 2442
len 2435
▁أسعار 2435
صة 2428
كس 2422
▁مس 2419
اية 2406
▁Menschen 2405
▁الاقتصادية 2405
امية 2403
▁أنه 2395
زب 2394
طي 2393
me 2391
am 2386
ابة 2381
▁Finanz 2379
▁ات 2377
▁j 2372
as 2370
يدة 2370
▁يق 2366
a 2360
ّ 2359
▁فقط 2358
مية 2357
▁können 2353
▁الناس 2352
وار 2351
▁Das 2351
▁zum 2350
▁والأ 2348
▁اقتصاد 2343
يون 2338
ريق 2335
ذه 2331
▁بما 2330
on 2329
▁بر 2328
▁تس 2320
▁g 2315
▁J 2309
▁kann 2307
▁النقد 2304
▁كثير 2302
ركز 2297
▁روسيا 2297
▁منذ 2281
▁رئيس 2280
قيقة 2279
جح 2274
آ 2272
رائ 2270
ريب 2268
▁أد 2265
▁به 2251
▁البي 2250
▁تب 2250
eln 2247
▁اليوم 2247
الت 2246
ze 2242
▁وإ 2239
om 2237
ضع 2237
▁دولار 2234
فاع 2229
▁عل 2226
ra 2225
رية 2222
▁s 2220
▁الشركات 2217
مان 2215
زي 2214
zu 2212
ثر 2212
▁لإ 2207
قيق 2199
▁Auf 2199
ber 2198
▁aber 2197
هل 2196
▁الآ 2196
افة 2195
دم 2188
وز 2188
طر 2175
ومة 2174
men 2173
▁gegen 2171
▁ور 2169
▁بها 2167
▁يد 2167
▁US 2165
وسط 2164
ليم 2161
▁أيضاً 2159
▁وكان 2157
▁السي 2156
خفض 2155
▁يح 2155
ik 2152
▁gew 2151
ges 2150
iz 2149
▁الحكومة 2149
▁القد 2146
aus 2142
▁Und 2142
ich 2139
▁China 2138
اصة 2135
صف 2133
▁Ab 2131
الات 2129
عار 2128
▁تحت 2126
سبة 2123
▁وج 2121
ige 2117
كة 2116
صلاح 2111
▁ينبغي 2111
▁نظ 2110
▁حق 2109
▁يُ 2109
ياس 2103
▁الز 2098
▁العم 2098
ارية 2095
os 2091
▁بالت 2087
ier 2083
ro 2083
wer 2082
▁n 2079
وسع 2078
نوات 2076
هور 2076
▁سب 2075
▁مد 2065
2 2061
يمة 2058
ab 2055
aten 2054
▁سبيل 2049
▁المنا 2048
cht 2045
▁h 2039
▁أقل 2038
iert 2034
صبح 2032
▁dieser 2029
▁أف 2029
▁الطاقة 2029
▁Zeit 2025
ang 2024
▁لأن 2024
tet 2023
▁وهذا 2016
ität 2014
▁وع 2013
bar 2009
واق 2009
سات 2007
▁الواقع 2007
طيع 1998
▁السياسة 1998
حق 1994
▁ent 1994
▁الحد 1994
▁المحلي 1993
▁الحرب 1992
▁المناخ 1992
▁حول 1986
اما 1984
▁ين 1984
وح 1983
▁le 1973
▁أش 1972
▁يج 1972
▁Um 1971
▁e 1966
▁الأول 1966
طلب 1963
▁جم 1963
▁was 1960
أن 1959
▁الحك 1958
▁Doch 1955
ne 1953
▁b 1947
▁الاجتما 1945
A 1942
P 1942
sten 1942
حية 1942
gt 1939
▁würde 1939
▁وهي 1937
زيز 1936
▁seine 1936
▁wurde 1936
▁السياسية 1934
▁vers 1929
▁التج 1928
▁فر 1926
▁تُ 1923
▁بأ 1921
ind 1917
▁Länder 1917
▁النظام 1915
عر 1910
▁könnte 1909
au 1908
ظمة 1906
▁Land 1903
▁müssen 1901
▁أكبر 1901
▁Jahr 1900
▁re 1900
y 1899
يلة 1899
▁ون 1899
▁O 1898
نى 1894
وائ 1894
ale 1893
سين 1893
▁تك 1892
يران 1891
▁ges 1891
▁تص 1891
▁دون 1890
ؤس 1886
▁المثال 1882
▁بشأن 1879
اك 1878
▁ضد 1878
▁St 1877
نو 1876
ger 1873
باد 1870
▁الأكثر 1869
▁بأن 1867
▁عمل 1866
li 1861
▁أجل 1859
zen 1858
▁المق 1857
▁مر 1856
▁الجم 1854
▁Es 1853
▁المخ 1852
▁Ge 1848
her 1847
▁f 1847
ركات 1839
ريك 1839
▁A 1836
▁أحد 1836
▁Nach 1832
▁اللا 1831
ويل 1828
S 1823
▁وخ 1822
▁ومع 1822
ann 1821
اض 1821
▁تلك 1821
ken 1819
▁zwischen 1818
▁فت 1817
▁m 1816
كون 1815
انات 1811
▁للأ 1808
5 1807
▁Aber 1805
ak 1803
نظيم 1803
ادي 1800
بات 1799
جر 1799
tige 1796
▁معدل 1795
قرار 1794
اريخ 1792
▁العق 1792
▁دول 1792
به 1790
▁المؤ 1790
ويات 1787
kommen 1779
هود 1779
est 1772
▁البنوك 1771
از 1767
ئية 1766
تيجة 1766
راف 1766
ريط 1766
▁eines 1763
▁المزيد 1761
anz 1760
امة 1757
▁الات 1757
erung 1755
عيد 1755
▁شي 1755
är 1754
▁أث 1754
▁يعني 1754
خدم 1753
▁آخر 1752
▁وح 1751
ert 1750
ضا 1749
▁عم 1745
▁وقت 1745
▁أول 1744
لية 1743
▁الحكومات 1742
▁اليورو 1741
▁منطقة 1741
اعت 1738
كنولوج 1737
▁الأزمة 1737
▁الأميركية 1736
▁السياسات 1736
▁تحد 1734
وقع 1731
▁المؤس 1730
رار 1729
▁المالي 1728
▁مختلف 1727
▁احت 1726
جع 1722
▁l 1720
تق 1719
▁والح 1719
بط 1718
ation 1717
▁ير 1717
▁الخارج 1715
▁وه 1715
ür 1714
اسة 1712
امج 1712
▁الماضي 1712
▁عالم 1710
▁ففي 1710
ffen 1706
تمع 1706
ul 1705
اطر 1705
▁حك 1705
▁الممكن 1701
▁جديدة 1700
ومات 1699
▁بالفعل 1697
▁والواقع 1689
▁الوا 1688
▁; 1684
▁Im 1683
يه 1682
طاق 1680
وء 1677
ينا 1674
▁الي 1672
ً 1669
▁EU 1669
اليف 1667
▁أيضا 1667
▁تحقيق 1667
▁Pro 1666
▁uns 1659
صالح 1658
بت 1657
▁فع 1657
تع 1656
يت 1653
▁بالم 1652
زام 1651
dem 1650
▁Jahren 1645
▁عليها 1642
بق 1640
▁تف 1639
▁أميركا 1638
▁قاد 1637
▁والع 1634
▁لها 1633
اقت 1631
▁immer 1631
v 1630
كد 1630
▁الغرب 1628
اقة 1626
جه 1626
▁ذ 1623
ماً 1620
▁والذي 1620
ück 1617
وقف 1614
ismus 1609
▁الجن 1608
ؤول 1607
▁المال 1607
▁bis 1606
ol 1604
▁الناتج 1604
▁يجب 1603
ad 1602
▁القرن 1601
لول 1600
▁? 1598
تخابات 1597
▁وق 1597
▁جانب 1594
fen 1590
▁التد 1590
وريا 1589
ta 1587
▁ihrer 1587
▁ظل 1587
ht 1585
بين 1585
▁النو 1585
بار 1583
▁إعادة 1583
سبب 1581
hn 1579
▁تعمل 1578
شا 1576
يب 1574
▁لح 1573
▁الأج 1571
ظل 1569
▁Regierung 1567
غل 1566
▁sp 1566
يج 1563
افية 1561
هدف 1558
ظر 1557
حاد 1556
اخل 1550
يش 1549
8 1547
▁الياب 1546
mer 1542
▁عدد 1541
ff 1540
▁أنها 1539
▁الإجمالي 1539
uch 1537
▁لابد 1537
غيير 1536
▁Über 1530
än 1526
ضة 1525
اعد 1524
▁الرغم 1524
▁andere 1523
▁يش 1523
ودة 1522
▁3 1522
عمال 1520
يط 1520
▁الجديدة 1520
elt 1516
halten 1515
▁الأساسية 1515
▁الدولية 1515
▁السياسي 1515
▁تخ 1515
▁بالنسبة 1512
▁تقد 1511
▁زيادة 1511
ag 1510
حا 1507
▁أصبح 1507
▁الذ 1506
1 1505
reich 1505
مين 1505
▁شأنه 1505
tischen 1504
دام 1503
▁عليه 1503
licher 1502
▁أفضل 1502
هائ 1500
▁ثم 1500
▁التص 1499
مويل 1498
زال 1496
▁Dies 1496
ماء 1491
ماية 1491
▁dies 1491
▁ربما 1491
▁التأ 1489
ندوق 1488
j 1487
▁تتم 1487
▁مستوى 1487
▁نظام 1483
▁الخط 1482
▁الروس 1482
▁تط 1481
▁الاستثمار 1480
▁am 1477
▁الأخيرة 1476
▁عدم 1476
▁يتعين 1476
▁Unter 1473
واء 1471
tre 1469
▁البنك 1467
7 1466
لت 1463
3 1461
▁أصبحت 1460
غة 1459
لاف 1459
ck 1458
عت 1458
rä 1457
بير 1456
▁النظ 1456
▁بو 1456
▁بدأ 1455
▁الدولة 1454
▁الإنت 1452
▁نق 1452
B 1451
▁muss 1450
▁إلي 1450
4 1448
▁ste 1448
si 1446
جات 1446
حدة 1446
▁Vers 1444
▁بسبب 1444
▁العل 1443
ملكة 1440
ah 1439
شكلة 1439
▁الأميركي 1439
9 1437
اسية 1436
▁مليار 1429
▁نهاية 1427
hr 1426
▁بوت 1426
▁مف 1426
▁Europa 1425
▁مجموعة 1425
ليات 1424
ريقيا 1422
▁wieder 1422
▁Sp 1420
هج 1419
▁يشكل 1419
▁keine 1418
داد 1416
▁وليس 1415
طن 1413
▁بلدان 1413
▁جز 1413
ft 1407
▁بإ 1406
بع 1403
وري 1403
6 1401
▁يبدو 1400
ولى 1399
ومية 1399
ierung 1394
▁واض 1394
▁التعا 1393
بيع 1392
▁نمو 1390
etz 1389
شف 1388
▁الأسواق 1384
هداف 1382
▁viel 1382
▁Ländern 1381
▁أغلب 1381
زة 1380
الب 1379
زا 1379
▁دولة 1377
lä 1376
ساء 1374
▁الديمقراطية 1374
▁الساب 1374
▁Russland 1373
▁العامة 1373
▁استخدام 1372
زايد 1370
▁نت 1370
▁وغير 1369
▁anderen 1368
▁أما 1364
▁C 1363
واز 1360
nis 1357
شرة 1357
änd 1356
tiv 1353
مثل 1352
▁dar 1352
▁إذ 1351
igkeit 1348
اول 1345
جد 1345
▁النف 1343
▁ترمب 1342
ins 1341
▁الحال 1339
ضح 1338
ينية 1338
▁فيما 1336
▁الفائدة 1333
eit 1330
طلاق 1330
▁Sie 1329
▁يتص 1329
▁التجارة 1327
▁وف 1326
ياة 1324
طق 1322
▁العس 1321
▁تشكل 1321
▁باعتبار 1320
جاه 1319
lichkeit 1317
ويلة 1316
▁De 1316
ورية 1315
لق 1314
مار 1314
▁Dollar 1313
خفاض 1310
▁وز 1310
ßen 1309
▁ثلا 1309
▁سل 1309
teil 1308
امب 1308
▁selbst 1308
ملة 1307
▁إدارة 1307
▁Wirtschafts 1306
▁4 1304
isten 1303
حدث 1301
▁الفيدر 1299
▁للح 1298
pr 1297
عضاء 1297
▁Mit 1297
▁الهند 1297
حتى 1296
فيذ 1296
▁الشم 1294
لاء 1293
auf 1292
▁جديد 1292
زيد 1290
▁الاحتيا 1290
▁در 1289
حات 1288
▁السوق 1286
▁وضع 1284
tische 1283
ائل 1281
▁شخص 1281
äl 1280
▁أهمية 1280
ent 1279
هن 1278
ug 1277
▁الأوروبية 1276
▁viele 1274
▁فمن 1274
pro 1272
if 1271
▁اتفاق 1270
chte 1268
ائمة 1267
atz 1265
▁während 1265
▁القطاع 1264
برى 1263
▁القي 1262
راك 1261
▁دعم 1260
شل 1259
هما 1259
طقة 1258
iger 1257
▁ألمانيا 1257
همة 1255
▁ارتفاع 1255
▁ولقد 1255
عداد 1253
ing 1252
علق 1252
وال 1251
▁seiner 1251
▁للغ 1251
ثات 1250
▁الخاصة 1250
▁العشرين 1249
▁التك 1247
uer 1246
صب 1246
تخ 1244
جاوز 1243
▁عشر 1243
▁لي 1243
اقات 1242
▁عملية 1241
سر 1240
▁Le 1240
▁فال 1239
ahr 1238
ركزي 1238
▁wurden 1236
ليل 1235
ati 1233
iel 1233
▁تض 1233
chten 1232
وان 1232
▁التنمية 1232
اذ 1231
ربون 1231
gung 1226
▁أق 1226
▁neue 1224
▁السب 1220
ender 1219
▁بار 1219
كرية 1217
id 1213
▁الأخرى 1212
▁ترك 1211
▁Ar 1210
▁ange 1210
▁خل 1210
▁كيف 1210
fl 1209
▁الشعب 1209
عاية 1208
enn 1206
عادة 1206
ek 1205
ell 1205
▁alle 1205
▁sondern 1204
▁التحد 1203
كرة 1202
▁ليست 1201
▁البلاد 1198
▁كبيرة 1198
▁القانون 1197
▁وإذا 1197
R 1196
▁gibt 1196
▁Grund 1194
und 1193
▁sollte 1193
▁مص 1190
فضل 1189
اه 1188
▁الديون 1186
انب 1184
حاء 1184
▁التضخم 1184
▁الحر 1184
يث 1183
▁مليون 1183
isch 1181
politik 1181
ün 1180
راتيجية 1180
يك 1179
▁So 1179
▁يكن 1179
oren 1177
وبة 1177
▁ihren 1176
طفال 1174
▁r 1174
▁الوطنية 1174
-19 1172
▁لع 1172
ولا 1169
اليا 1168
▁حالة 1168
▁يؤدي 1167
ائد 1166
▁Politik 1166
▁weiter 1166
ربما 1165
▁st 1165
iti 1160
uf 1158
vers 1158
▁Jahre 1156
رها 1154
etzen 1153
▁weit 1153
▁Unternehmen 1152
▁wo 1151
▁فضلاً 1149
▁وجه 1146
ite 1145
▁gen 1145
▁dazu 1141
E 1138
شرين 1137
▁انت 1137
▁Präsident 1136
▁einz 1135
utz 1133
▁sollten 1133
▁Ak 1131
ll 1128
ابات 1128
dern 1127
ren 1127
سرائيل 1126
eten 1122
land 1120
▁بنك 1120
▁vom 1118
▁wirtschaft 1118
الم 1115
▁Kon 1113
ist 1110
▁Ex 1109
▁zurück 1109
دد 1108
▁politische 1107
▁t 1107
▁Un 1106
ine 1104
انون 1103
▁beg 1103
D 1102
▁politischen 1101
schaft 1100
tion 1099
hl 1098
▁Wir 1097
اقتصاد 1095
ischer 1093
wirtschaft 1091
عض 1090
acht 1089
äh 1089
▁Wenn 1087
fer 1086
igt 1085
▁seit 1084
▁Geld 1080
tern 1079
▁waren 1079
▁diesem 1077
▁Al 1076
hal 1075
▁Regierungen 1074
▁damit 1073
▁etwa 1069
▁ihr 1069
لاح 1066
▁Diese 1064
▁أك 1062
M 1061
K 1059
ass 1059
▁Eine 1058
▁letzten 1055
▁2008 1054
▁Se 1054
▁5 1053
▁wäre 1051
ank 1049
ene 1049
inn 1049
etzt 1048
tel 1048
▁we 1047
▁I 1043
همية 1041
ünd 1039
▁الاحت 1038
oll 1037
قط 1036
oh 1028
▁الأخ 1024
مكن 1022
▁Ch 1021
▁größ 1016
كثر 1015
ör 1014
▁ارت 1013
ti 1011
▁könnten 1011
alen 1009
ib 1009
ähr 1006
بدو 1005
ديدة 1005
ein 1004
ute 1002
ner 1000
▁Staaten 1000
I 999
ahlen 994
ياب 994
ap 993
ß 993
▁Teil 993
▁bet 991
inen 990
ot 987
▁besch 987
tionen 985
▁الديمقراط 985
▁Entwicklungs 983
par 982
art 981
▁hin 979
geben 978
▁ohne 978
▁weniger 978
▁Trump 977
ir 974
ler 972
▁Entwicklung 972
▁denen 972
ans 971
fü 969
urs 969
▁20 966
▁ne 966
▁weil 966
غلب 965
▁führ 965
▁هنا 963
tik 961
äch 959
ارج 957
فعل 957
▁heute 954
mittel 952
alis 950
0 949
ولايات 948
stand 947
▁2 947
▁Macht 947
▁bereits 947
weise 946
▁Arbeits 946
ke 944
دارة 940
▁Ö 940
ed 939
ätz 938
ud 936
als 933
▁dieses 932
geb 924
rie 924
unden 924
ؤدي 921
ord 920
▁ob 916
tisch 914
▁zwei 913
zie 912
▁Wirtschaft 912
tr 911
T 910
di 910
haf 910
▁Staats 909
▁jedoch 908
▁Prozent 907
▁neuen 906
▁wichtig 906
els 904
uss 903
▁Reg 903
▁da 900
C 898
▁darauf 897
▁würden 896
▁Arbeit 895
▁Millionen 895
▁gegenüber 895
O 894
▁Ges 894
iden 891
▁6 891
▁التن 888
ommen 885
ob 883
راط 883
يمقراط 882
اجتما 881
G 878
rän 878
▁gesch 876
uld 875
im 873
nehmen 873
gew 871
▁Wahl 868
ring 867
tions 866
زيادة 866
دان 864
▁Ä 864
prä 861
▁versch 860
tieren 856
▁Verb 855
zus 854
ierte 852
üs 851
▁بش 851
per 848
fol 847
▁globalen 847
▁Produk 845
▁عند 845
gang 842
أنه 837
x 835
nung 834
▁he 834
▁sogar 832
▁machen 831
00 829
▁diesen 829
iten 828
▁nun 827
ichen 825
ucht 825
ationen 824
op 824
▁meisten 824
▁Ans 823
▁Wachstum 823
▁dafür 822
٪ 821
bank 820
▁Milliarden 820
▁Ne 819
lagen 817
▁Maßnahmen 816
▁v 816
gesch 815
ierten 815
▁Sta 814
ät 810
hung 808
▁Rück 807
ub 806
▁entwick 806
hol 805
äd 804
صال 804
tiert 803
ön 803
▁ers 803
wa 802
ließlich 801
stoff 801
▁dabei 801
timm 797
▁Am 797
▁ger 797
eder 796
▁البل 795
▁10 793
▁Man 793
▁Investitionen 792
ow 791
طاع 791
▁her 790
▁ze 790
ziel 789
▁ich 789
los 788
▁Kapital 788
▁Seit 785
▁besteht 785
▁الأميرك 785
zahl 784
ure 783
▁ho 783
fahr 782
▁gel 782
tier 778
▁Fr 777
▁se 777
tung 776
▁la 776
▁gemeins 774
▁الوط 774
hö 772
ok 771
▁lie 771
amp 770
▁bes 770
gleich 769
▁Ber 769
age 768
iss 768
sche 768
ثمار 768
خدام 768
az 767
fe 767
zug 767
▁Region 767
▁الوق 767
▁Unterstützung 766
▁and 766
▁bef 766
unter 763
bt 762
lig 761
▁Handels 761
qu 760
▁ber 760
▁hatte 760
▁sowie 759
F 757
▁bra 756
شكل 755
▁Landes 754
▁Schulden 754
▁ganz 753
▁Chinas 752
ess 751
ms 751
▁ausge 751
elle 749
▁Jahrzehn 748
äf 746
erer 745
▁weltweit 743
amer 742
pf 742
▁Krise 742
▁best 742
▁seinen 742
▁sol 742
icher 741
itt 740
▁Gr 740
llt 739
nisse 739
heiten 738
▁Hand 738
▁sehr 736
wend 735
▁Volks 735
▁Au 734
ichten 733
وروبا 733
▁Energie 733
ater 732
ellen 731
tischer 730
▁gleich 730
über 729
▁dann 729
ip 726
ولوج 726
fte 725
▁Mon 725
▁Ang 724
sta 723
▁ihnen 722
▁Krieg 721
erst 720
hand 720
▁7 719
nen 718
▁führen 718
ech 715
legen 714
minister 714
ations 713
gr 711
wand 710
lim 709
ant 708
▁Ende 707
▁Als 705
▁jetzt 705
▁Frauen 704
od 703
▁Deutschland 703
arbeit 702
ks 702
weit 701
▁fre 700
▁off 699
▁stark 699
uchen 697
ven 696
▁beste 695
ضخم 693
▁19 693
▁Problem 693
ثال 692
▁1 691
zeich 689
▁Frage 688
ile 687
gel 686
▁8 686
▁Banken 686
▁davon 686
▁lassen 686
kehr 684
▁2015 684
äische 683
▁Mittel 683
richt 682
▁Par 682
▁Wie 682
▁hoch 682
aff 681
tieg 679
anischen 677
assen 677
ate 677
länder 677
pl 677
▁Lebens 677
innen 676
غي 676
itäten 675
▁Vereinigten 675
tes 674
▁Steuer 674
▁große 674
ors 672
▁Ziel 670
issen 667
▁Iran 666
ches 665
▁BIP 665
antwort 664
krise 663
▁Bes 662
och 661
▁allerdings 660
mög 659
fäl 658
to 658
▁Schw 658
ritt 657
▁also 657
▁betra 657
bil 656
ment 656
wär 656
zw 656
ünf 656
▁kein 656
nahme 654
▁insbesondere 654
▁ü 654
ust 653
▁staat 653
▁أميرك 653
راتيج 651
führ 650
maß 650
▁indem 649
lag 648
▁me 647
amen 646
▁kon 646
ßer 645
poli 643
▁ir 643
tigt 642
▁hinaus 642
all 641
▁Auch 641
▁wirtschaftliche 641
▁Besch 640
cher 639
▁de 639
▁gut 637
zeit 636
▁drei 636
▁ins 635
▁schon 635
ätze 634
عدل 634
▁tun 634
▁He 633
▁” 633
igung 632
▁Tatsächlich 632
▁Weise 632
keit 631
▁aufgrund 630
▁beh 629
erte 628
▁Rolle 628
ru 627
kl 626
tie 626
▁großen 626
enen 624
fiz 624
▁Markt 624
▁Bank 623
▁bek 623
ٍ 622
▁Kosten 622
punkt 621
نك 621
▁globale 621
licht 620
ons 619
▁Japan 618
▁zusammen 618
rik 617
▁eigenen 617
th 616
führt 615
ilien 615
änder 615
▁kurz 615
leg 614
frage 613
äng 613
ئيس 613
itz 612
▁fest 612
▁bed 610
sel 609
gehen 608
وروب 608
kon 607
ktor 607
▁Hin 607
▁Indus 607
▁Sicherheit 602
▁frü 602
▁Kredit 601
▁Gesch 600
▁Zahl 600
tra 599
▁199 599
▁Geg 599
▁Bürger 597
▁Inter 597
▁doch 597
هاية 596
amt 595
ختلف 595
▁Th 595
tiger 594
▁Imp 594
▁Möglichkeit 594
äm 593
خم 593
▁europäischen 593
, 592
tigkeit 592
▁Durch 592
▁erforder 592
af 591
▁jüng 591
▁zwar 591
▁Gesundheits 590
lage 589
urch 587
▁Europ 587
▁الماض 587
L 586
▁Herausforder 586
bre 585
▁deren 585
ente 584
▁2010 584
bau 583
nehmer 583
▁hö 583
▁poli 582
مب 581
▁We 581
▁schw 581
▁Zukunft 580
▁erhö 580
▁gr 580
nahmen 579
ativen 578
ieten 578
vention 578
▁Leben 577
schied 576
trie 576
▁2020 576
▁Verein 576
form 575
lie 574
wo 574
▁niedri 574
ative 573
uen 573
esen 572
kra 572
▁te 571
ichtlich 570
riff 570
ruppen 570
▁akt 570
▁Ins 569
▁Konf 569
H 568
pp 568
ede 567
▁eing 567
▁ähn 567
abhäng 565
▁Art 565
▁außer 565
bilität 564
▁50 564
tive 563
▁Fall 562
▁ak 562
▁geht 562
ologie 561
uten 561
▁internationalen 561
ورو 560
▁einfach 560
etzung 559
fs 559
N 557
gangen 557
▁Weg 557
▁pro 557
bs 556
neh 556
▁langfris 556
tien 555
tigung 554
▁deutlich 554
▁einmal 553
▁hätte 553
▁Gren 552
▁Probleme 552
▁fr 552
▁verb 551
wachstum 550
att 549
ffent 549
▁Auswirkungen 549
V 548
brauch 548
ili 548
▁U 548
▁verst 548
▁Öl 548
bild 547
fang 547
ichts 547
▁Dar 547
▁scheint 547
▁Fra 546
▁stehen 546
▁verfü 546
▁darin 545
og 544
umen 543
▁einige 542
W 541
for 541
äre 541
▁bew 541
▁steht 541
bersch 540
reif 539
utzen 539
▁30 539
▁Führ 539
▁internationale 539
tis 538
▁Kons 538
▁sei 538
▁18 537
▁Ste 537
Z 536
issenschaft 536
ras 536
örder 536
اقع 536
▁Entscheidung 536
▁Gemein 536
▁innerhalb 536
▁Demokratie 535
▁Politiker 535
affen 534
▁beiden 534
▁fast 534
▁wenig 534
gn 533
ilfe 533
ktur 533
lossen 533
▁Jahrhunder 533
lau 532
zial 532
▁2009 532
konom 531
tellt 531
trag 531
ult 531
▁Br 531
▁statt 531
▁lang 530
▁Präsidenten 529
وسيا 527
ard 526
uli 526
zeug 525
ändern 525
▁glau 525
änger 523
▁liegt 523
eden 522
▁All 522
▁Frankreich 521
▁sicher 521
▁Or 520
▁erreichen 520
▁weitere 520
▁علي 520
▁Bild 519
▁Während 519
▁etwas 519
ink 518
vor 518
▁aller 518
▁lange 518
enten 517
ran 517
▁Wachstums 517
▁ern 517
▁get 517
▁schnell 517
U 516
indest 516
▁Zusammen 516
stru 515
▁Sicherheits 514
ichte 513
halb 512
ide 512
▁unsere 511
▁öffentlichen 511
ommun 510
▁Lage 510
▁UN 510
lo 509
ris 509
نوك 509
▁Ph 509
▁gefähr 509
▁vielen 509
ائدة 508
موعة 508
▁allem 508
ss 507
▁1. 507
▁Str 507
▁erklär 507
kal 506
mal 506
▁konn 506
▁Amerikas 505
▁Ide 505
▁Selbst 505
ritte 504
▁Obwohl 504
ragen 503
▁Eurozone 503
▁Tr 503
ill 502
tz 502
▁15 502
▁2016 502
▁Bereich 502
▁Indien 502
agen 501
▁Aut 501
▁Euro 501
▁Krank 501
▁Putin 501
falls 500
▁gest 500
▁2014 499
▁Wohl 499
▁ersten 499
50 497
zi 497
▁Mehr 497
▁Zentralbank 497
alisierung 496
ign 496
▁Bed 496
▁Bere 496
iele 495
▁9 494
▁Regierungs 494
▁höher 494
alt 493
chie 493
krieg 492
▁verbess 492
aup 491
kte 491
▁Union 491
▁bereit 491
▁hand 491
angen 490
fin 490
▁gering 490
▁wer 490
▁فض 489
ble 488
▁demokra 488
▁kle 488
fris 486
▁Te 485
▁nachhal 485
▁stellen 485
ativ 484
▁schwer 484
▁sowohl 484
▁verl 484
▁Haushalts 483
teid 482
bes 481
net 481
▁Fortsch 481
▁Rahmen 481
▁bringen 481
iner 480
▁fol 480
ieden 479
hält 478
▁197 478
▁40 478
▁Geschichte 478
ange 477
annt 477
lassen 477
▁europ 477
▁Ukraine 476
▁dür 476
▁klar 475
ose 474
▁Wert 474
▁amerikanischen 474
▁for 474
▁2019 473
wir 472
ürz 472
▁100 472
▁2007 472
▁Zu 472
▁eff 472
▁verring 472
alten 471
schaften 471
ort 470
▁al 470
reg 469
▁Europäischen 469
▁Für 469
▁dessen 469
▁Gefahr 468
▁Mal 468
▁all 468
▁bede 468
omm 467
zess 467
öl 467
ذي 467
▁Währungs 466
▁bleiben 465
ast 464
ländern 464
▁Pers 464
▁daher 464
اعتبار 463
▁Geb 463
▁Kinder 463
▁finanziel 462
fung 461
▁denn 461
▁je 461
anische 460
▁Was 460
▁genau 460
ade 459
gabe 459
leihen 459
gend 458
iß 458
▁Frei 458
pre 457
▁Süd 457
▁weiterhin 457
uelle 456
▁Institutionen 456
▁nie 455
ame 454
rit 454
uellen 454
wor 454
▁sozial 454
bruch 453
lin 453
▁Partei 453
▁beispielsweise 453
renz 452
uts 452
▁steig 452
▁wohl 452
ont 451
osten 451
▁Wo 451
▁geben 451
chter 450
isierung 450
ften 449
sy 449
eres 448
ium 448
asch 447
zustellen 447
▁Staat 447
bare 446
▁Gew 446
andemie 445
ösen 445
▁Amerika 445
▁Bemühungen 445
▁gef 445
erk 443
▁Einfluss 443
▁Gleich 443
▁fe 443
ahl 442
▁Fe 442
▁Großbritannien 442
▁Sy 442
▁trotz 442
inden 441
por 441
ütz 441
▁Ko 441
▁zweit 441
iben 440
ähl 440
▁Trans 440
▁schwier 440
ma 439
häng 438
zip 438
▁Bevölkerung 438
▁Hö 438
▁entscheid 438
▁Israel 437
▁ents 437
▁Ansatz 436
▁الأوروب 436
osition 435
unde 435
▁Angesichts 435
hör 434
ämp 434
▁Europas 434
▁Risiken 434
des 433
sich 433
▁12 432
▁System 432
▁beim 432
▁Groß 431
▁Nord 431
istischen 430
▁Bedeutung 430
▁Her 430
▁Q 430
▁Wieder 430
ic 429
liches 429
▁2000 429
▁Führung 429
▁erne 429
▁zus 429
wirtschaften 428
يرك 428
▁Bo 428
▁Stra 428
▁priv 428
▁Beispiel 427
ielen 426
steme 426
▁2011 426
▁Stat 426
▁erfolg 426
▁weltweiten 426
fass 425
▁Arbeitspl 425
▁Dem 425
▁Erfolg 425
▁Obama 425
▁lediglich 425
▁wollen 425
mens 424
stellung 424
▁Auss 424
▁bri 424
▁kaum 424
geh 423
off 423
welt 423
▁Plan 423
▁War 423
▁Zwe 423
▁25 422
▁Entscheid 422
▁For 422
▁Inflation 422
▁groß 422
▁ihrem 422
bl 421
leich 421
mäß 421
pe 421
▁chinesischen 421
▁schle 421
▁wahrscheinlich 421
▁Gesetz 420
▁allen 420
▁sche 420
▁wirk 420
altung 419
eld 419
ise 419
▁Ressourcen 419
bed 418
markt 418
▁Ungleich 418
▁einge 418
aktion 417
▁zw 417
ikan 416
▁bevor 416
▁erwar 416
▁jähr 416
▁nationalen 416
▁vielleicht 416
program 415
▁oft 415
▁wel 415
leistungen 414
kommens 413
ion 412
▁Nor 412
▁ermög 412
chaft 411
▁Interessen 411
▁Ziele 411
fern 410
▁halten 410
baren 409
ffe 409
▁nächsten 409
.000 408
ließen 408
uß 408
▁Viel 408
▁angesichts 408
▁bedeutet 408
▁seinem 408
weisen 407
▁Druck 407
▁Preis 407
▁bleibt 407
anzös 406
illi 406
▁National 406
▁besser 406
▁einsch 406
▁schaffen 406
▁tre 406
grund 405
gu 405
res 405
▁Trumps 405
▁hatten 404
agt 403
bene 403
iens 403
omen 403
▁Mitglied 403
▁Op 403
▁Recht 403
▁Schwellen 403
▁finden 403
▁gesam 403
▁2012 402
▁Bet 402
▁kommen 402
▁obwohl 401
▁tra 401
▁Pl 400
▁russischen 400
mung 399
ruppe 399
▁ebenso 399
ase 398
erungs 398
führung 398
ienst 398
▁1990 398
▁Ger 398
▁Parte 398
▁jed 398
▁lo 398
▁السياس 398
issionen 397
man 397
▁COVID 397
bei 396
▁Amerikan 396
▁stärker 396
ock 395
oli 395
gaben 394
lex 394
ruck 394
itäts 393
ore 393
▁Irak 393
bo 392
öß 392
▁2030 392
igent 391
weg 391
ützen 391
▁194 391
▁Gewalt 390
▁Zins 390
eg 389
onds 389
▁Terror 389
▁Ur 389
▁hier 389
▁sor 389
▁vier 389
asser 388
cken 388
istische 388
kenn 388
raten 388
äter 388
▁60 388
▁daran 388
▁militäris 388
▁voll 387
schn 386
▁Bedro 386
▁Jahres 386
▁Schl 386
elten 385
onn 385
▁Inform 385
▁ben 385
▁nat 385
▁nichts 385
20 384
ress 384
wert 384
▁2013 384
▁Klim 384
▁Techn 384
▁Zusammenarbeit 384
▁erheb 384
aufen 383
erste 383
hin 383
ied 383
▁hervor 383
▁zunehmend 383
ance 382
ive 382
zession 382
▁El 382
iem 381
▁Beziehungen 381
▁Kampf 381
▁Westen 381
▁fünf 381
▁hinter 381
henden 380
ächst 380
▁reg 380
▁unterstützen 380
auer 379
kung 379
war 379
ände 379
▁erhalten 379
teili 378
▁198 378
▁Leist 378
▁häufig 378
handlungen 377
rieren 377
äuf 377
▁Part 377
▁Türkei 377
▁Zugang 377
ieg 376
▁2017 376
▁Em 376
▁erst 376
▁gehen 376
▁soll 376
▁west 376
▁أيض 376
dr 375
jenigen 375
▁Afrika 375
▁Asi 375
▁Mo 375
▁Republik 375
▁Vertra 375
▁derartige 375
lan 374
trä 374
▁Risiko 374
▁lässt 374
▁11 373
▁Pre 373
▁Reformen 373
▁Schutz 373
▁tr 373
▁wor 373
ines 372
lik 372
▁tatsächlich 372
enz 371
▁Folgen 371
▁Osten 371
▁arbeit 371
esehen 370
losigkeit 370
▁Ausgaben 370
▁grundleg 370
▁russ 370
einander 369
fra 369
hörden 369
preise 369
ärken 369
ästinens 369
▁Bei 369
▁Mein 369
▁komp 369
▁offen 369
ime 368
ärkte 368
▁Dis 368
▁Program 368
▁Wähl 368
▁keinen 368
▁wichtige 368
chts 367
duk 367
stellen 367
▁unterstütz 367
▁Fähigkeit 366
▁Infrastruktur 366
folge 365
heits 365
ksam 365
prech 365
recht 365
ia 364
red 364
▁Da 364
▁Me 364
ache 363
bracht 363
ina 363
▁Armut 363
▁Daten 363
glieder 362
hne 362
hungen 362
▁Beg 362
▁Not 362
▁erkenn 362
ärkten 361
▁1, 361
▁Ob 361
▁Veränder 361
▁Ergebnis 360
▁Form 360
▁Zweit 360
▁allgeme 360
▁öffentliche 360
ünde 359
▁16 359
▁ö 359
allen 358
are 358
ielt 358
isen 358
rsch 358
▁wachs 358
ingen 357
ktion 357
سرائ 357
mp 356
▁Kontrolle 356
▁chinesische 356
▁umfass 356
atis 355
legt 355
▁Absch 355
▁Lösung 355
▁aufge 355
▁unver 355
zeitig 354
▁ihm 354
▁vergangen 354
ates 353
uk 353
zub 353
▁Fl 352
جمالي 351
▁Uns 351
▁darüber 351
▁funktion 351
ingungen 350
ums 350
▁Nationen 350
▁Wer 350
▁ausländ 350
▁helfen 350
▁rich 350
▁verhindern 350
▁zehn 350
achen 349
breit 349
kungen 349
ließ 349
uktur 349
urz 349
▁Trotz 349
▁alles 349
▁anders 349
▁besonders 349
▁bess 349
▁möglich 349
iesen 348
union 348
würd 348
öhn 348
kämp 347
prechen 347
▁möglicherweise 347
märkte 346
olog 346
▁Klimawandel 346
▁Lin 346
▁bisher 346
▁konzent 346
zuf 345
ös 345
▁2005 345
▁Reguli 345
apital 344
ierungs 344
teile 344
▁Tatsache 344
▁bestimm 344
▁derar 344
pek 343
▁derzeit 343
▁hab 343
ial 342
ling 342
ritten 342
▁IWF 342
▁gab 342
▁wären 342
▁erre 341
ühren 340
▁Atom 340
▁Eins 339
▁tie 339
ilt 338
uft 338
▁Invest 338
▁Natürlich 338
▁gem 338
.5 337
stems 337
▁Bush 337
▁Fehl 337
▁Ich 337
▁Richtung 337
anten 336
rem 336
▁Anteil 336
▁Res 336
▁Strategie 336
▁größten 336
esent 335
risen 335
▁Med 335
▁dort 335
▁prof 335
ahen 334
ilen 334
leben 334
طف 334
ener 333
itu 333
onen 333
system 333
▁Glob 333
▁gemacht 333
chaf 332
esse 332
▁No 332
▁beit 332
▁erg 332
▁بالن 332
mente 331
rei 331
▁Innov 331
▁heraus 331
▁str 331
isse 330
▁2018 330
▁Fam 330
angs 329
here 329
ission 329
▁Ital 329
▁hät 329
bat 328
essen 328
kräfte 328
räsident 328
▁202 328
▁allein 328
▁amerikanische 328
andid 327
sident 327
▁Außen 327
▁erste 327
gra 326
haupt 326
klär 326
▁Kont 326
▁na 326
tri 325
▁ersch 325
ellschaft 324
tiven 324
▁17 324
▁Fak 324
▁Organisation 324
▁nehmen 324
▁will 324
ären 323
▁Forsch 323
▁Griechen 323
▁ihn 323
▁warum 323
ph 322
sion 322
ähigkeit 321
▁ihres 321
bers 320
ett 320
gesetzt 320
la 320
▁Tra 320
▁Wettbewer 320
▁bil 320
▁strateg 320
▁wid 320
heim 319
inge 319
ments 319
opp 319
▁Minister 318
zogen 317
▁Kor 317
▁Mod 317
▁amp 317
hmen 316
▁solche 316
blic 315
rieben 315
▁Real 315
▁dire 315
▁unserer 315
olle 314
zent 314
▁Fed 314
▁kommt 314
handl 313
orea 313
▁Maß 313
▁196 312
ong 311
▁Flü 311
▁Tod 311
erv 310
▁Militär 310
▁neuer 310
▁Wid 309
hm 308
ies 308
iv 308
omp 308
uge 308
ördern 308
üt 308
▁2001 308
▁80 308
▁Medien 308
▁ehemal 308
▁finanz 308
▁Stre 307
▁sin 307
stre 306
▁Gesellschaft 306
atastrop 305
imm 305
▁letz 305
eth 304
▁pra 304
under 303
▁14 303
▁Pal 303
▁Pol 303
▁arab 303
▁arg 303
▁dam 303
rag 302
▁Haushal 302
▁Rechts 302
aden 300
feren 300
isation 300
لمانيا 300
▁Ant 300
,5 299
fall 299
ider 299
ibt 298
reichen 298
ron 298
timmen 297
urop 297
wie 297
▁21 297
▁inves 297
▁CO 296
▁Gener 296
▁Investi 296
▁ä 296
▁Y 295
üd 294
▁Priv 294
▁Währ 294
io 293
خف 293
▁gar 293
ost 292
aut 291
les 291
old 291
vol 291
▁Energ 291
▁Gesundheit 291
▁Tre 291
gest 290
yp 290
▁2006 290
▁70 290
▁Ent 290
▁Mar 290
ats 289
entr 289
ontrol 289
▁Fried 289
▁Technolog 289
alle 287
ملك 287
ration 286
schaf 286
▁Islam 286
▁di 286
▁NATO 285
▁tradition 285
organ 284
▁Den 284
▁ke 284
▁En 283
▁national 283
▁notwend 283
▁13 282
ivil 281
▁Eng 281
▁Fre 281
lei 280
mes 280
▁La 280
▁New 280
▁Bel 279
▁deut 279
arn 278
▁Syri 278
c 277
llen 277
ote 277
raft 277
▁Bund 277
haus 276
gyp 275
▁Stand 275
▁nationale 275
▁pr 275
amm 274
up 274
▁Put 274
▁Revolution 274
▁Sen 274
▁af 274
tat 273
تما 273
▁müs 273
agement 272
llung 272
▁Vol 271
▁mens 271
▁sa 271
ahrschein 270
ante 269
formen 269
tsch 269
▁global 269
▁poten 269
lus 268
ump 268
du 267
lands 267
▁2004 267
▁90 267
▁öffent 267
▁bre 265
▁star 265
▁zwe 265
til 264
▁Kong 264
ged 263
je 263
las 263
▁Fol 263
▁Zug 263
iste 262
ners 262
▁Nat 262
▁At 261
▁Ma 261
emen 260
ings 260
▁region 260
▁2050 259
▁Ag 259
▁ex 259
▁mus 259
liz 258
▁Initi 257
▁Schul 257
▁ملي 257
ils 256
▁النات 256
-20 255
feld 255
iter 255
rank 255
▁2003 255
▁Bras 255
▁Min 255
▁ind 255
lier 254
tegra 254
utet 254
br 253
bra 253
erstand 253
▁1980 253
▁Donald 253
eter 252
ho 252
▁Lib 252
▁Haus 251
▁produ 251
aly 250
lament 250
org 250
uh 250
▁Sor 250
illionen 249
pass 249
rak 249
ürlich 249
bens 248
hab 248
rate 248
▁International 247
▁Sub 247
ingt 246
▁Ents 246
▁wen 246
ual 245
▁stärk 245
▁ولي 245
ay 244
port 244
wort 244
▁West 244
triel 243
▁zunehm 243
ense 242
▁rel 242
geme 241
▁Pri 241
▁wider 241
▁’ 241
int 240
tab 240
▁sel 240
lear 239
▁au 239
get 238
tit 238
une 238
▁2021 238
chn 237
leist 237
▁a 237
ize 236
▁Po 236
▁Qu 236
▁sen 236
▁NEW 235
app 234
▁Univers 234
000 233
ator 233
ition 233
▁Demokra 233
▁Lös 233
▁Poli 233
ese 232
▁As 232
alls 231
▁Brexit 231
▁Mus 231
▁The 231
▁mag 231
eng 230
okra 230
äß 230
▁... 230
▁histor 230
▁of 230
ema 229
licherweise 229
mut 229
tim 229
ärk 229
▁p 229
aum 228
ika 228
tor 228
▁ar 225
ahmen 224
▁enor 224
▁Ü 224
ian 223
▁Strateg 223
▁pl 223
ourn 222
▁form 222
▁normal 222
enda 221
omb 221
ues 221
▁end 221
▁mas 221
▁mög 221
erein 220
▁Premier 220
▁gro 220
▁pas 220
▁redu 220
ath 219
benso 219
▁Bar 219
ager 218
▁international 218
▁1989 217
ient 216
▁Klima 216
▁pers 216
ales 215
aupt 214
tellen 214
▁technolog 214
▁spe 213
▁Bas 212
aher 211
dings 211
ister 209
ail 208
erg 208
jet 208
▁Wor 208
ög 207
▁fort 207
bas 206
واقع 206
▁Internet 206
olitik 205
ouver 205
▁200 205
▁Prin 205
aben 204
bri 204
eller 204
▁Pop 204
▁modern 204
ollar 202
our 202
▁Sh 202
▁bel 202
▁private 202
ationale 201
lle 201
ou 201
▁2. 201
▁jap 201
▁wich 201
zy 200
▁YORK 200
▁Fir 199
▁en 199
▁Bl 198
▁Jan 198
▁imp 198
AR 197
bi 197
▁Kar 197
-200 196
ai 196
mit 196
wickl 196
oper 195
tif 195
ull 195
vesti 195
rat 194
▁193 194
▁Chanc 194
▁Afghanistan 193
▁Mens 193
▁stabil 193
forder 192
ahrscheinlich 191
▁Des 191
▁John 191
▁dis 191
ack 190
▁24 190
▁näch 190
ampf 189
ilit 189
sive 189
صبحت 189
▁ans 189
▁eng 189
▁sta 189
▁2002 188
▁Ir 188
▁komm 188
imes 187
▁Ro 187
▁September 187
völk 186
▁institution 186
▁! 185
▁500 185
▁And 185
kn 184
rateg 184
urb 184
▁Barack 184
ages 183
gas 183
its 183
ret 183
test 183
unft 183
unkt 183
▁0. 183
▁Indi 183
ards 182
ision 182
ression 182
▁Bevölk 182
▁Kre 182
▁bal 182
▁emp 182
▁enorme 182
▁har 182
▁ignor 182
ette 181
indus 181
irus 181
▁unw 181
stem 180
▁Per 180
enh 179
igten 179
lic 179
rise 179
▁Li 179
▁relig 179
▁· 179
rimin 178
▁israel 178
▁stand 178
ys 177
oc 176
ruption 176
▁22 176
▁Ergeb 176
ire 175
ule 175
▁35 175
▁Proble 175
▁dro 175
▁mach 175
J 174
sk 174
ublik 174
AN 173
ament 173
▁191 173
▁George 173
▁land 173
abei 172
ielle 172
onder 172
خرى 172
▁entsche 172
ark 171
▁27 171
▁Afrik 171
▁Bür 171
▁islam 171
part 170
ue 170
▁sau 170
ild 169
▁bere 169
▁ولك 169
inter 168
lar 168
▁0, 168
▁Pakistan 168
▁popul 168
▁u 168
ters 167
▁195 167
ick 166
min 166
ode 166
▁Reserve 166
ents 165
este 165
ac 164
oment 164
ordin 164
rich 164
▁Entwickl 164
▁Krem 164
▁Rich 164
▁dest 164
folg 163
iet 163
tend 163
▁Liber 163
▁liber 163
▁neg 163
ko 162
▁Je 162
▁eigen 162
fluss 161
▁1970 161
▁moment 161
▁rep 161
achstum 160
entral 160
flation 160
udi 160
▁300 160
▁positi 160
av 159
itig 159
tiz 159
wick 159
▁Mex 159
▁fis 159
iere 158
▁1997 158
▁Intern 158
mar 157
ält 157
تصاد 157
▁75 157
▁Char 157
▁Net 157
gh 156
komm 156
orie 156
▁exp 156
▁pa 156
▁real 156
glied 155
pt 155
▁Klimawand 155
▁York 155
▁fallen 155
▁radi 155
arm 154
▁23 154
▁asi 154
asse 153
▁hal 153
▁ret 153
30 152
ladimir 152
▁Cor 152
▁Mor 152
▁Rus 152
▁ausl 152
▁dra 152
▁inter 152
▁o 152
ari 151
heb 151
rop 151
▁26 150
▁Bezie 150
▁Dep 150
ain 149
ief 149
inent 149
onst 149
räfte 149
▁autor 149
▁pal 149
ande 148
ly 148
▁Gro 148
quid 147
ve 147
▁Ad 147
ith 146
uel 146
ْ 146
▁blo 146
▁diplom 146
▁Biden 145
ause 144
bor 144
dition 144
يدر 144
▁Che 144
▁med 144
one 143
rug 143
ühr 143
▁2, 143
▁multil 143
▁risk 143
agne 142
ets 142
itter 142
ower 142
üng 142
▁Emp 142
ario 141
▁Saudi 141
▁nu 141
rup 140
use 140
▁digital 140
ane 139
ends 139
leicht 139
raf 139
▁Lo 139
▁November 139
▁abs 139
▁fal 139
titute 138
ölk 138
▁Mark 138
▁il 138
▁per 138
iser 137
uar 137
▁Tal 137
▁system 137
iff 136
ogra 136
tschaft 136
yn 136
▁Federal 136
IS 135
▁1999 135
▁Chr 135
▁Xi 135
nah 134
ynam 134
▁BR 134
▁bring 134
▁defin 134
▁frag 134
▁kn 134
agn 133
issens 133
▁sy 133
ateral 132
issions 132
itim 132
ones 132
teur 132
▁Kenn 132
▁Mos 132
erne 131
▁Ass 131
▁Dav 131
EN 130
ember 130
ex 130
▁Hamas 130
▁einf 130
eins 129
uter 129
▁App 128
▁organis 128
bern 127
dar 127
gl 127
titution 127
▁verhin 127
ument 126
تى 126
▁Clinton 126
▁dr 126
▁enorm 126
▁fa 126
▁geopoli 126
▁kön 126
▁schn 126
EC 125
aul 125
inder 125
ular 125
▁1991 125
▁domin 125
illion 124
orte 124
▁0 124
▁Gem 124
emp 123
usam 123
▁Kim 123
▁leg 123
▁mar 123
cheid 122
orts 122
ov 122
▁Pres 122
istan 121
▁Ser 121
▁inform 121
ce 120
chan 120
ity 120
▁Fonds 120
▁Isra 120
▁inf 120
gar 119
usion 119
▁Milit 119
azu 118
schein 118
ächlich 118
▁Fin 118
▁General 118
▁Har 118
▁Jap 118
▁fra 118
▁inten 118
▁som 118
▁the 118
isp 117
vo 117
wing 117
▁absol 117
ew 116
ination 116
till 116
vis 116
äs 116
▁Fund 116
▁Ind 116
▁gra 116
line 115
teg 115
▁Hung 115
▁Ke 115
▁Washington 115
▁integ 115
▁quantita 115
besondere 114
ton 114
zehn 114
ander 113
rad 113
utsch 113
▁Sarko 113
▁ag 113
▁to 113
-1 112
IC 112
bol 112
imen 112
▁Inf 112
▁moral 112
ER 111
ake 111
aria 111
mo 111
volution 111
▁Global 111
▁aggres 111
▁ethn 111
▁intel 111
▁massive 111
▁won 111
▁Bre 110
▁LONDON 110
▁mobil 110
▁moder 110
ais 109
idem 109
rol 109
▁Merkel 109
▁beispiel 109
▁trans 109
▁vol 109
irtschaf 108
minist 108
mon 108
sweise 108
tschaf 108
▁CAMBRIDGE 108
▁X 108
▁par 108
ames 107
ordan 107
po 107
ros 107
▁28 107
▁Pak 107
▁Sin 107
▁extrem 107
▁human 107
hetor 106
met 106
rab 106
wirtschaf 106
▁Georg 106
▁Risik 106
▁su 106
ettbewer 105
pri 105
▁Macron 105
▁Taiwan 105
▁i 105
ada 104
anda 104
igration 104
ral 104
▁Arab 104
▁Austr 104
▁IS 104
▁it 104
aw 103
ID 102
abil 102
itions 102
olid 102
▁Zentral 102
▁bl 102
sh 101
▁Covid 101
▁Sum 101
▁Ter 101
▁gre 101
▁innov 101
▁optim 101
anc 100
hem 100
tag 100
ulation 100
▁Port 100
▁anti 100
IN 99
ih 99
onse 99
▁&#91; 99
▁&#93; 99
▁Austral 99
▁Car 99
▁ri 99
arch 98
olar 98
▁Bal 98
▁Sicher 98
▁ha 98
abe 97
ism 97
▁1930 97
▁Comp 97
▁Großbritann 97
▁Is 97
▁belie 97
▁block 97
▁positive 97
▁sex 97
ali 96
asion 96
ational 96
med 96
▁Argent 96
▁Ben 96
▁amerikan 96
pte 95
rim 95
▁Ha 95
▁WASHINGTON 95
▁ries 95
amente 94
co 94
minbi 94
▁Su 94
▁altern 94
▁mor 94
▁nord 94
▁ra 94
▁res 94
▁stre 94
▁ينب 94
air 93
gram 93
ni 93
ry 93
▁Pen 93
▁Unterstütz 93
▁fl 93
EL 92
iew 92
lam 92
oy 92
▁Pr 92
▁Vietnam 92
▁bas 92
▁dig 92
▁ideolog 92
▁stim 92
ash 91
ital 91
▁Merk 91
IV 90
dit 90
glie 90
ollah 90
uper 90
▁Gre 90
▁Hong 90
▁My 90
▁On 90
▁chines 90
▁find 90
▁pol 90
con 89
▁chr 89
▁engag 89
▁psych 89
▁unf 89
achs 88
ix 88
ome 88
▁Facebook 88
▁or 88
▁tri 88
X 87
bert 87
isl 87
▁1960 87
▁Gu 87
▁Mc 87
▁et 87
▁foss 87
▁loc 87
opol 86
Ü 86
▁able 86
▁extre 86
▁gl 86
▁negative 86
ias 85
án 85
▁May 85
▁welt 85
+ 84
anger 84
ci 84
ish 84
lem 84
▁attra 84
▁brut 84
▁fair 84
aj 83
asi 83
ban 83
ole 83
ront 83
usti 83
▁Rep 83
▁at 83
▁industriel 83
dam 82
▁Sal 82
▁dav 82
▁ma 82
▁son 82
▁une 82
ana 81
gor 81
ox 81
ume 81
wür 81
▁DC 81
▁Goog 81
▁London 81
▁Paris 81
ades 80
ric 80
ude 80
vel 80
▁Sa 80
bewer 79
ides 79
iedri 79
ony 79
▁Tur 79
▁miss 79
▁ro 79
ela 78
endum 78
erse 78
ida 78
mas 78
ott 78
▁Institution 78
▁Nigeria 78
▁University 78
▁br 78
▁häuf 78
▁intern 78
▁tats 78
ara 77
son 77
xt 77
▁Kh 77
▁individ 77
▁univers 77
down 76
ond 76
á 76
▁Singap 76
▁pre 76
▁warn 76
gent 75
iban 75
lev 75
ocks 75
onal 75
▁Keynes 75
ging 74
ira 74
ls 74
oph 74
▁problem 74
▁soli 74
ado 73
ary 73
oso 73
▁Brit 73
▁Erdoğ 73
▁interes 73
▁minim 73
▁phys 73
▁sub 73
▁typ 73
ille 72
rel 72
▁Las 72
▁los 72
▁mal 72
▁qualif 72
IP 71
Y 71
emü 71
ps 71
rieg 71
▁Tür 71
▁ide 71
▁reform 71
▁tenden 71
ansion 70
sions 70
unes 70
vere 70
▁bi 70
▁imm 70
▁norm 70
▁sk 70
andem 69
by 69
cho 69
lement 69
su 69
▁Bro 69
▁Gaza 69
▁energ 69
▁flex 69
▁garanti 69
▁stagn 69
ols 68
ried 68
vern 68
▁Cent 68
▁autom 68
▁is 68
▁manip 68
▁techn 68
bon 67
gres 67
ival 67
kes 67
ollen 67
oman 67
ush 67
▁Jo 67
▁Ken 67
▁Venezuela 67
▁dynam 67
▁em 67
▁post 67
ilos 66
ograph 66
vi 66
▁ele 66
▁motiv 66
▁relev 66
OR 65
ama 65
beit 65
ghan 65
igh 65
ua 65
ware 65
za 65
▁Mac 65
▁Milliar 65
▁ann 65
▁on 65
▁resul 65
able 64
agan 64
aran 64
iern 64
oss 64
▁Sad 64
▁late 64
▁oper 64
▁prim 64
gun 63
ois 63
onom 63
rain 63
vent 63
▁ineff 63
▁regional 63
▁repr 63
▁rob 63
TO 62
ace 62
aks 62
axim 62
pend 62
▁Richt 62
▁extreme 62
▁quo 62
CE 61
ivers 61
uros 61
▁To 61
ax 60
orn 60
roll 60
▁Esta 60
▁gener 60
▁nom 60
bal 59
onders 59
ٌ 59
▁Organ 59
▁infl 59
▁progres 59
▁revolution 59
atri 58
hor 58
iente 58
▁Les 58
▁el 58
▁glob 58
▁ord 58
▁transpar 58
ands 57
echn 57
olution 57
äischen 57
▁Sim 57
▁aut 57
▁zune 57
low 56
mos 56
sych 56
é 56
▁demonst 56
▁mer 56
▁ph 56
▁sign 56
-2 55
ES 55
ds 55
äst 55
▁Act 55
▁insta 55
amb 54
era 54
ises 54
ontrolle 54
tic 54
zone 54
▁Bemü 54
▁Co 54
▁Lond 54
▁alt 54
▁insp 54
▁log 54
bst 53
gan 53
▁Frank 53
▁Govern 53
▁grund 53
▁plan 53
▁prom 53
IB 52
anj 52
ror 52
▁Inde 52
▁Unf 52
▁existen 52
▁fossil 52
▁lib 52
▁mon 52
▁qu 52
▁stop 52
CC 51
ating 51
do 51
ero 51
mark 51
ods 51
quelle 51
rupp 51
tives 51
was 51
▁$ 51
▁Economic 51
▁rein 51
ep 50
ourcen 50
▁Af 50
▁SD 50
▁Sau 50
▁qual 50
▁ru 50
▁us 50
ants 49
elf 49
go 49
ions 49
rage 49
rib 49
tir 49
ty 49
▁Et 49
▁parte 49
▁san 49
▁such 49
▁— 49
Q 48
abor 48
hunder 48
oms 48
uman 48
▁NA 48
▁Party 48
▁identif 48
▁propag 48
▁ration 48
DP 47
erver 47
ined 47
ux 47
ves 47
▁Pe 47
▁World 47
▁prote 47
TON 46
ence 46
iment 46
ios 46
lob 46
stütz 46
thod 46
vid 46
▁Zuk 46
▁regul 46
▁sym 46
ani 45
of 45
ondere 45
rastr 45
▁Con 45
▁Une 45
▁du 45
▁extern 45
▁internationales 45
▁territor 45
▁terror 45
ON 44
alog 44
ear 44
elles 44
lad 44
usse 44
▁Fran 44
▁relati 44
▁still 44
ador 43
onald 43
oner 43
rent 43
▁alternative 43
▁analy 43
▁mark 43
GE 42
ata 42
dos 42
led 42
mers 42
ortion 42
Ö 42
▁indi 42
▁mis 42
▁not 42
▁provo 42
amin 41
irm 41
itar 41
ç 41
▁Bra 41
▁legitim 41
▁rest 41
▁ris 41
ano 40
aster 40
cy 40
ica 40
ij 40
ory 40
ustra 40
vest 40
wirkungen 40
▁.. 40
▁Cl 40
▁Sel 40
▁fall 40
▁min 40
▁rapide 40
▁trat 40
▁° 40
AS 39
iers 39
row 39
ón 39
▁AI 39
▁Cons 39
▁Russ 39
▁as 39
▁do 39
▁fer 39
▁mes 39
iness 38
ness 38
pul 38
q 38
uras 38
urer 38
uro 38
wohl 38
▁Muslim 38
▁Nobel 38
▁Sud 38
▁Tats 38
▁ref 38
▁ser 38
▁unil 38
com 37
temp 37
▁Development 37
▁pos 37
▁transform 37
aba 36
bit 36
cu 36
ertes 36
former 36
uck 36
Ä 36
▁Afghan 36
▁America 36
▁Clint 36
▁arm 36
▁ul 36
ancial 35
ays 35
chau 35
cl 35
conom 35
ice 35
ona 35
out 35
uff 35
▁Col 35
▁Go 35
▁Ham 35
ident 34
ino 34
over 34
utes 34
wan 34
▁Ban 34
▁Bri 34
▁Comm 34
▁Korea 34
▁Sw 34
▁Tro 34
▁divers 34
▁garan 34
▁simp 34
▁vie 34
aps 33
igne 33
ogn 33
ous 33
urn 33
usammen 33
utschland 33
ya 33
▁II 33
▁Mög 33
▁mater 33
AM 32
ca 32
edeut 32
gets 32
ther 32
uls 32
ural 32
‒ 32
▁imper 32
▁interven 32
▁milit 32
▁perman 32
achst 31
cial 31
sia 31
wn 31
▁Ac 31
▁Niger 31
▁That 31
▁argent 31
▁char 31
▁faire 31
▁liberal 31
▁relative 31
▁signif 31
afür 30
ork 30
ound 30
ures 30
▁American 30
▁Il 30
▁chem 30
▁half 30
▁inst 30
▁pat 30
▁stud 30
# 29
RID 29
ible 29
rupt 29
ynes 29
zo 29
▁000 29
▁Ukra 29
▁bar 29
▁cha 29
▁profession 29
▁subst 29
▁لاب 29
jen 28
nerg 28
oth 28
oun 28
quent 28
ässt 28
▁COV 28
▁King 28
▁Milli 28
▁bo 28
▁ca 28
▁virt 28
aire 27
ando 27
antes 27
atives 27
ics 27
uest 27
ula 27
verse 27
▁Guer 27
▁Kore 27
▁Por 27
▁ad 27
▁marg 27
▁op 27
▁separ 27
arian 26
ave 26
ction 26
divers 26
ight 26
ior 26
jets 26
utions 26
vision 26
▁Health 26
▁export 26
▁les 26
▁mob 26
▁multilateral 26
▁wür 26
ING 25
cep 25
ering 25
istes 25
iven 25
ld 25
tent 25
uis 25
قراط 25
ی 25
‚ 25
▁Venez 25
▁appel 25
▁ch 25
▁dur 25
▁event 25
▁las 25
▁mut 25
▁pandem 25
▁person 25
▁position 25
▁tot 25
▁ultim 25
act 24
ansi 24
ec 24
ession 24
ga 24
iller 24
opoli 24
rog 24
table 24
thers 24
uj 24
uth 24
val 24
ń 24
‘ 24
▁design 24
▁hy 24
del 23
ites 23
mber 23
rer 23
uy 23
ward 23
− 23
▁Cour 23
▁Sing 23
▁administra 23
▁cir 23
▁def 23
▁essen 23
▁ev 23
▁has 23
▁win 23
apos 22
enne 22
itä 22
liance 22
obili 22
tain 22
äris 22
▁Est 22
▁First 22
▁NE 22
▁Sur 22
▁bank 22
▁dist 22
▁explo 22
▁harm 22
▁inner 22
▁mil 22
▁monet 22
▁plus 22
▁profit 22
▁tro 22
ares 21
da 21
erve 21
hip 21
inal 21
ispiel 21
mans 21
oud 21
ross 21
▁Commission 21
▁c 21
▁deb 21
▁destru 21
▁diff 21
▁multi 21
▁no 21
▁nor 21
ausforder 20
ista 20
ita 20
ree 20
tiva 20
▁Ress 20
▁dep 20
▁euro 20
▁fin 20
▁fund 20
▁jur 20
▁pass 20
▁po 20
▁prop 20
▁syn 20
▁ve 20
TAN 19
ait 19
aron 19
ct 19
ical 19
iles 19
orm 19
ortun 19
own 19
ques 19
▁These 19
▁ehem 19
▁ep 19
▁flo 19
▁fundament 19
▁li 19
▁ren 19
WF 18
dad 18
eler 18
enez 18
gment 18
istent 18
nes 18
oci 18
ody 18
put 18
que 18
term 18
tro 18
ura 18
work 18
▁Los 18
▁expand 18
▁integra 18
▁iran 18
▁obs 18
▁prin 18
▁repres 18
▁souver 18
▁sug 18
alth 17
any 17
ape 17
auv 17
bility 17
ices 17
illes 17
illing 17
ities 17
rou 17
unis 17
va 17
vir 17
▁Climate 17
▁Council 17
▁Sec 17
▁Wh 17
▁fix 17
▁hom 17
▁initi 17
▁int 17
▁multip 17
▁pan 17
▁simple 17
▁th 17
▁ur 17
▁vari 17
MI 16
ding 16
eda 16
ires 16
lect 16
licy 16
rip 16
upe 16
vice 16
­ 16
▁boom 16
▁exper 16
▁mess 16
▁port 16
fi 15
ght 15
ization 15
uels 15
xit 15
ye 15
ó 15
▁Security 15
▁South 15
▁State 15
▁Tai 15
▁ambi 15
▁fact 15
▁fun 15
▁hel 15
▁ill 15
▁industri 15
▁pe 15
▁ress 15
▁sim 15
▁volati 15
aise 14
change 14
cing 14
endra 14
entes 14
gency 14
ject 14
outine 14
sible 14
trib 14
ublic 14
▁House 14
▁Parti 14
▁Such 14
▁attack 14
▁ble 14
▁elimin 14
▁emissions 14
▁politi 14
▁rap 14
▁red 14
▁test 14
_ 13
aiss 13
anges 13
ened 13
ills 13
ives 13
jo 13
other 13
unt 13
ustain 13
▁Africa 13
▁Can 13
▁Roy 13
▁Trade 13
▁favor 13
▁iden 13
▁inflation 13
▁legal 13
▁manif 13
▁militar 13
▁opposition 13
▁tempor 13
▁total 13
▁trop 13
▁urban 13
▁vision 13
ables 12
ases 12
ducation 12
edom 12
endre 12
enses 12
ey 12
gger 12
gos 12
iety 12
izar 12
loy 12
outh 12
rence 12
ugg 12
▁Coun 12
▁European 12
▁North 12
▁from 12
▁fu 12
▁invol 12
▁isol 12
▁litt 12
▁sud 12
= 11
akes 11
ambi 11
ces 11
dra 11
iglich 11
iliz 11
iving 11
liqu 11
ople 11
termin 11
ui 11
• 11
▁Bedeut 11
▁Com 11
▁Commun 11
▁EC 11
▁Mais 11
▁UK 11
▁bud 11
▁famili 11
▁far 11
▁fem 11
▁fur 11
▁net 11
▁organ 11
▁pub 11
▁stri 11
▁wur 11
ains 10
aken 10
ally 10
anos 10
cess 10
cos 10
ening 10
ervor 10
esses 10
has 10
hib 10
ico 10
ird 10
issent 10
ligence 10
lique 10
nam 10
ocra 10
oin 10
tement 10
titu 10
uda 10
ér 10
és 10
í 10
▁Asia 10
▁British 10
▁Ira 10
▁Regier 10
▁arr 10
▁extra 10
▁hor 10
▁instru 10
▁investig 10
▁mo 10
▁oblig 10
▁period 10
▁ple 10
▁‐ 10
* 9
aci 9
anced 9
ances 9
arios 9
ateur 9
ato 9
car 9
edi 9
gress 9
ither 9
ito 9
lir 9
na 9
oses 9
umul 9
way 9
ł 9
▁Ce 9
▁Chin 9
▁East 9
▁Lik 9
▁Oc 9
▁Seg 9
▁United 9
▁bene 9
▁bor 9
▁but 9
▁grand 9
▁liquid 9
▁live 9
▁met 9
▁milli 9
▁pen 9
▁tend 9
▁them 9
▁vir 9
▁vul 9
▁« 9
adas 8
akers 8
anti 8
anyah 8
ared 8
ated 8
cio 8
idas 8
ily 8
ique 8
isti 8
ité 8
lec 8
limin 8
ming 8
nelle 8
tice 8
ting 8
uc 8
ules 8
ury 8
ution 8
xim 8
§ 8
ästin 8
ï 8
ć 8
š 8
▁African 8
▁But 8
▁France 8
▁How 8
▁Monetary 8
▁Ris 8
▁Wirtschaf 8
▁alli 8
▁anim 8
▁bur 8
▁by 8
▁extr 8
▁first 8
▁intervention 8
▁journ 8
▁parti 8
▁protest 8
▁sal 8
▁seg 8
▁sum 8
▁tod 8
▁à 8
anco 7
arse 7
ators 7
cent 7
cer 7
cia 7
clear 7
come 7
ctor 7
dom 7
eros 7
het 7
ici 7
istance 7
itan 7
key 7
oles 7
ough 7
oup 7
ouse 7
pris 7
tics 7
tries 7
uation 7
undi 7
viron 7
× 7
ño 7
ô 7
ú 7
▁Cong 7
▁Cov 7
▁Lat 7
▁Washing 7
▁equ 7
▁fundamental 7
▁link 7
▁mod 7
▁potenti 7
▁reb 7
▁rev 7
▁sino 7
▁transfer 7
▁y 7
▁É 7
▁€ 7
acy 6
ague 6
ality 6
ancing 6
antita 6
ashing 6
atory 6
aza 6
cto 6
ect 6
icos 6
itation 6
lish 6
lles 6
nel 6
nels 6
ning 6
ores 6
sian 6
tical 6
udes 6
urance 6
utri 6
ving 6
voir 6
É 6
ès 6
én 6
ún 6
▁Bien 6
▁Europe 6
▁Face 6
▁If 6
▁Now 6
▁One 6
▁Plus 6
▁Si 6
▁adap 6
▁app 6
▁ass 6
▁big 6
▁bul 6
▁cle 6
▁dollar 6
▁expansion 6
▁fau 6
▁him 6
▁hyp 6
▁imag 6
▁inv 6
▁legisl 6
▁let 6
▁ment 6
▁opportun 6
▁orig 6
▁pri 6
▁prob 6
▁program 6
▁prov 6
▁sh 6
▁sing 6
▁solidar 6
▁stat 6
▁stock 6
▁sur 6
▁ty 6
▁» 6
,000 5
aisse 5
anta 5
cal 5
can 5
cas 5
dic 5
emble 5
ency 5
endant 5
forme 5
ield 5
ietnam 5
ility 5
ited 5
nement 5
nov 5
ocratic 5
oi 5
quality 5
rir 5
ritann 5
rough 5
té 5
uent 5
ás 5
ña 5
ğ 5
ھ 5
▁By 5
▁German 5
▁Great 5
▁India 5
▁Latin 5
▁Ré 5
▁States 5
▁What 5
▁amb 5
▁annual 5
▁ap 5
▁been 5
▁fail 5
▁high 5
▁identit 5
▁lat 5
▁mechan 5
▁rend 5
▁resol 5
▁train 5
▁vo 5
▁you 5
\ 4
actions 4
alisation 4
bles 4
ced 4
cup 4
ences 4
ether 4
ficit 4
gesichts 4
ican 4
ieurs 4
inaus 4
itizens 4
jec 4
less 4
lies 4
ltim 4
lé 4
nements 4
ove 4
pect 4
pects 4
rement 4
resp 4
round 4
taire 4
ted 4
tial 4
ties 4
ulent 4
vereign 4
ying 4
ährend 4
ée 4
ín 4
č 4
ō 4
ş 4
́ 4
нь 4
ть 4
х 4
٠ 4
٢ 4
ک 4
‹ 4
› 4
▁Allem 4
▁Central 4
▁Erdo 4
▁Geor 4
▁Infrastr 4
▁It 4
▁Nations 4
▁Prem 4
▁absen 4
▁billion 4
▁bio 4
▁bro 4
▁business 4
▁comp 4
▁diri 4
▁divid 4
▁entre 4
▁exchange 4
▁gradu 4
▁gu 4
▁his 4
▁individual 4
▁indus 4
▁jam 4
▁kind 4
▁line 4
▁model 4
▁mul 4
▁open 4
▁out 4
▁por 4
▁prosper 4
▁sens 4
▁subs 4
▁ter 4
▁va 4
▁vi 4
▁в 4
▁за 4
▁и 4
▁с 4
▁что 4
鋓 4
鋝 4
aking 3
alists 3
andis 3
anza 3
ather 3
atos 3
aux 3
baj 3
care 3
cir 3
cur 3
dle 3
emos 3
ending 3
erves 3
estin 3
hold 3
hood 3
ians 3
ibles 3
ientos 3
igr 3
ists 3
itaire 3
izing 3
king 3
ledge 3
lict 3
ories 3
orta 3
ources 3
pecial 3
qué 3
rient 3
rollo 3
sif 3
tats 3
thing 3
try 3
ucture 3
urity 3
uv 3
vement 3
verage 3
ween 3
wers 3
wide 3
zar 3
¥ 3
Á 3
Ã 3
è 3
éc 3
ég 3
él 3
ñ 3
ś 3
ž 3
да 3
ления 3
ло 3
т 3
١ 3
‫ 3
▁After 3
▁Americans 3
▁Banque 3
▁Congress 3
▁Etat 3
▁GDP 3
▁Grande 3
▁IM 3
▁Mexico 3
▁Nob 3
▁WASH 3
▁ach 3
▁armes 3
▁ata 3
▁back 3
▁ban 3
▁bus 3
▁can 3
▁che 3
▁co 3
▁del 3
▁determin 3
▁exc 3
▁exemp 3
▁fil 3
▁fir 3
▁growth 3
▁have 3
▁hon 3
▁id 3
▁impro 3
▁infrastr 3
▁its 3
▁jus 3
▁könn 3
▁last 3
▁least 3
▁lim 3
▁mass 3
▁medi 3
▁million 3
▁my 3
▁ni 3
▁non 3
▁option 3
▁orient 3
▁planet 3
▁poin 3
▁pres 3
▁prior 3
▁prolong 3
▁pros 3
▁put 3
▁quel 3
▁rapid 3
▁rate 3
▁scho 3
▁see 3
▁sem 3
▁situ 3
▁slow 3
▁soft 3
▁than 3
▁that 3
▁too 3
▁top 3
▁tw 3
▁viv 3
▁with 3
▁Á 3
▁по 3
aban 2
ability 2
aces 2
acter 2
aged 2
aging 2
aines 2
amos 2
ancer 2
aries 2
arly 2
book 2
ception 2
cle 2
cles 2
ctions 2
ctors 2
duc 2
ederal 2
eli 2
endo 2
etting 2
fic 2
force 2
frica 2
ful 2
gence 2
hic 2
idence 2
ido 2
ining 2
istas 2
itable 2
ized 2
ión 2
kei 2
loc 2
long 2
mi 2
orter 2
ount 2
pec 2
rabe 2
rado 2
rar 2
reat 2
sc 2
tica 2
time 2
tiveness 2
ture 2
uit 2
unch 2
uring 2
ved 2
ways 2
{ 2
} 2
£ 2
ã 2
ées 2
ém 2
érale 2
été 2
ía 2
ític 2
î 2
ò 2
ø 2
œ 2
Š 2
Ž 2
а 2
ваться 2
жда 2
й 2
ка 2
л 2
лага 2
ли 2
м 2
нем 2
ну 2
ны 2
ных 2
ня 2
по 2
ре 2
реб 2
с 2
сты 2
у 2
ху 2
э 2
ю 2
я 2
٣ 2
▁&# 2
▁Amer 2
▁Britain 2
▁Conse 2
▁EE 2
▁Etats 2
▁Gesund 2
▁IMF 2
▁Israeli 2
▁Mean 2
▁ON 2
▁President 2
▁Second 2
▁Western 2
▁address 2
▁adop 2
▁are 2
▁asp 2
▁aur 2
▁av 2
▁avant 2
▁balance 2
▁banc 2
▁based 2
▁better 2
▁cal 2
▁calcul 2
▁car 2
▁change 2
▁civ 2
▁common 2
▁con 2
▁confi 2
▁cour 2
▁cri 2
▁currency 2
▁data 2
▁dri 2
▁economy 2
▁eso 2
▁ess 2
▁essenti 2
▁est 2
▁exist 2
▁face 2
▁fight 2
▁finan 2
▁franç 2
▁go 2
▁institutions 2
▁investment 2
▁mism 2
▁modi 2
▁more 2
▁nar 2
▁only 2
▁over 2
▁path 2
▁pour 2
▁power 2
▁rates 2
▁regime 2
▁rem 2
▁repe 2
▁sentiment 2
▁serv 2
▁sm 2
▁social 2
▁start 2
▁sus 2
▁tar 2
▁ten 2
▁tour 2
▁tur 2
▁util 2
▁val 2
▁value 2
▁ven 2
▁via 2
▁vis 2
▁vital 2
▁which 2
▁why 2
▁world 2
▁would 2
▁И 2
▁Си 2
▁Ч 2
▁Я 2
▁были 2
▁власти 2
▁вы 2
▁з 2
▁к 2
▁не 2
▁о 2
▁от 2
▁партии 2
▁ро 2
● 2
鋘 2
鰃 2
@ 1
AMB 1
INGTON 1
^ 1
acional 1
ación 1
action 1
aires 1
arko 1
ateurs 1
ature 1
azo 1
aî 1
cide 1
cip 1
cted 1
cul 1
ecu 1
eless 1
ely 1
encia 1
enta 1
ered 1
eron 1
erta 1
ghts 1
icas 1
icial 1
idad 1
imir 1
ious 1
iques 1
ired 1
isant 1
isme 1
issement 1
ière 1
leo 1
lying 1
most 1
nent 1
né 1
ocr 1
ocrats 1
oint 1
oire 1
orters 1
osed 1
ould 1
ously 1
quer 1
reci 1
retary 1
rican 1
ropri 1
ré 1
ría 1
ró 1
side 1
tant 1
tention 1
teurs 1
tico 1
tific 1
tique 1
tish 1
titude 1
tout 1
ued 1
umption 1
undial 1
undo 1
uso 1
vec 1
vidence 1
yond 1
Å 1
Ê 1
Í 1
Ó 1
Ø 1
ác 1
â 1
å 1
èg 1
ène 1
ère 1
éd 1
élé 1
ération 1
érie 1
éta 1
óm 1
ù 1
ā 1
ă 1
ę 1
ŏ 1
ő 1
Œ 1
ș 1
ʿ 1
̶ 1
б 1
бира 1
в 1
ва 1
вать 1
во 1
вой 1
вы 1
га 1
ган 1
д 1
де 1
ди 1
до 1
ду 1
емы 1
ере 1
жа 1
жать 1
жде 1
жи 1
з 1
зы 1
и 1
ителей 1
ится 1
к 1
кан 1
кими 1
кого 1
кре 1
кры 1
купа 1
лась 1
ле 1
лен 1
ля 1
ми 1
му 1
нению 1
ни 1
ние 1
ники 1
нима 1
ния 1
но 1
нов 1
ной 1
ные 1
ный 1
об 1
он 1
па 1
пи 1
пре 1
про 1
ри 1
рия 1
рован 1
рода 1
ских 1
сколь 1
сле 1
следо 1
со 1
сов 1
сси 1
ст 1
ства 1
ственные 1
сти 1
сто 1
стов 1
судар 1
тами 1
тем 1
тных 1
ф 1
хи 1
ход 1
цией 1
ча 1
че 1
чем 1
ческой 1
чным 1
ща 1
ыта 1
ют 1
яв 1
яви 1
ям 1
٤ 1
٥ 1
ڤ 1
▁Ces 1
▁Conseil 1
▁Cu 1
▁Dans 1
▁Develop 1
▁ECB 1
▁Esp 1
▁Even 1
▁Grie 1
▁Indeed 1
▁Japanese 1
▁Middle 1
▁More 1
▁Moyen 1
▁Of 1
▁Para 1
▁Prime 1
▁Republic 1
▁Russia 1
▁Sov 1
▁There 1
▁This 1
▁Vladimir 1
▁When 1
▁With 1
▁about 1
▁act 1
▁action 1
▁add 1
▁ade 1
▁aff 1
▁against 1
▁amer 1
▁ancien 1
▁annon 1
▁any 1
▁argu 1
▁assets 1
▁auster 1
▁ay 1
▁beginning 1
▁bon 1
▁break 1
▁bu 1
▁budget 1
▁building 1
▁case 1
▁cer 1
▁chin 1
▁circ 1
▁cl 1
▁coal 1
▁collapse 1
▁communaut 1
▁condi 1
▁cons 1
▁contra 1
▁control 1
▁cor 1
▁corporate 1
▁cos 1
▁could 1
▁country 1
▁cy 1
▁deal 1
▁decade 1
▁deliver 1
▁destin 1
▁det 1
▁different 1
▁difficile 1
▁double 1
▁drug 1
▁dém 1
▁easy 1
▁economic 1
▁effects 1
▁energy 1
▁engagement 1
▁ens 1
▁entra 1
▁environmental 1
▁exception 1
▁exports 1
▁external 1
▁factor 1
▁fam 1
▁finance 1
▁flow 1
▁fore 1
▁foreign 1
▁forma 1
▁free 1
▁fri 1
▁front 1
▁ful 1
▁gas 1
▁gouvern 1
▁governance 1
▁grandes 1
▁had 1
▁han 1
▁hard 1
▁highly 1
▁hold 1
▁hope 1
▁hos 1
▁hum 1
▁if 1
▁import 1
▁impos 1
▁income 1
▁inde 1
▁ine 1
▁intro 1
▁invers 1
▁isra 1
▁issue 1
▁job 1
▁judi 1
▁just 1
▁lack 1
▁lar 1
▁launch 1
▁law 1
▁leave 1
▁less 1
▁like 1
▁little 1
▁low 1
▁made 1
▁mais 1
▁maj 1
▁make 1
▁making 1
▁management 1
▁many 1
▁market 1
▁markets 1
▁mat 1
▁men 1
▁mill 1
▁minister 1
▁minor 1
▁money 1
▁most 1
▁never 1
▁nous 1
▁num 1
▁office 1
▁opin 1
▁opp 1
▁part 1
▁partis 1
▁partners 1
▁passé 1
▁pet 1
▁peti 1
▁plans 1
▁point 1
▁possible 1
▁prac 1
▁president 1
▁previous 1
▁probably 1
▁produce 1
▁productivity 1
▁products 1
▁promis 1
▁pu 1
▁pur 1
▁que 1
▁qui 1
▁raison 1
▁rather 1
▁recession 1
▁recher 1
▁rele 1
▁report 1
▁resp 1
▁respon 1
▁respond 1
▁return 1
▁rising 1
▁risks 1
▁run 1
▁régime 1
▁saf 1
▁same 1
▁sc 1
▁sector 1
▁ses 1
▁she 1
▁soc 1
▁spec 1
▁structure 1
▁super 1
▁supp 1
▁sustain 1
▁tax 1
▁these 1
▁they 1
▁thing 1
▁through 1
▁time 1
▁trade 1
▁true 1
▁trust 1
▁turn 1
▁union 1
▁until 1
▁up 1
▁use 1
▁vig 1
▁virus 1
▁what 1
▁without 1
▁words 1
▁work 1
▁years 1
▁État 1
▁á 1
▁éc 1
▁ét 1
▁éta 1
▁év 1
▁être 1
▁Го 1
▁Д 1
▁За 1
▁Ко 1
▁Ли 1
▁Пре 1
▁С 1
▁Тем 1
▁а 1
▁ад 1
▁ар 1
▁без 1
▁во 1
▁восп 1
▁време 1
▁всего 1
▁го 1
▁ж 1
▁же 1
▁информации 1
▁исп 1
▁как 1
▁контро 1
▁которые 1
▁лучше 1
▁массо 1
▁меры 1
▁можно 1
▁нача 1
▁неме 1
▁ново 1
▁об 1
▁образом 1
▁обычно 1
▁ограни 1
▁оста 1
▁относ 1
▁под 1
▁последствия 1
▁потер 1
▁правительства 1
▁преду 1
▁призна 1
▁продол 1
▁проте 1
▁проце 1
▁пу 1
▁рас 1
▁региона 1
▁своего 1
▁своей 1
▁связи 1
▁се 1
▁сель 1
▁случае 1
▁со 1
▁сообще 1
▁сотрудниче 1
▁сохра 1
▁средства 1
▁су 1
▁та 1
▁также 1
▁те 1
▁у 1
▁угро 1
▁хоро 1
▁чи 1
▁чрез 1
▁эти 1
▁этот 1
▁危 1
▁机 1
遪 1
鋍 1
鋖 1
鋜 1
黚 1
黡 1
黵 1
madeupword0000 0
madeupword0001 0
