en 100
er 100
▁d 100
es 100
▁, 100
in 100
▁a 100
on 100
▁t 100
▁s 100
▁. 100
▁l 100
▁p 100
an 100
ti 100
re 100
▁c 100
is 100
ch 100
ال 100
un 100
▁de 100
it 100
▁th 100
or 100
▁e 100
ar 100
al 100
ent 100
▁m 100
▁ال 100
ur 100
os 100
▁w 100
as 100
▁f 100
▁in 100
▁the 100
te 100
qu 100
▁b 100
ie 100
ст 100
▁o 100
▁п 100
▁n 100
le 100
us 100
tion 100
om 100
▁un 100
li 100
at 100
▁h 100
но 100
ro 100
▁в 100
▁an 100
ra 100
ни 100
▁g 100
ра 100
▁la 100
▁’ 100
▁с 100
el 100
ing 100
il 100
▁to 100
ci 100
▁v 100
ро 100
на 100
то 100
ed 100
▁и 100
ment 100
▁A 100
ко 100
▁of 100
ri 100
▁qu 100
ut 100
ре 100
▁en 100
▁re 100
▁о 100
▁E 100
▁and 100
ap 100
▁po 100
▁S 100
▁r 100
ation 100
ir 100
ли 100
id 100
не 100
▁的 100
ad 100
ны 100
го 100
est 100
ce 100
▁по 100
et 100
▁con 100
ul 100
▁م 100
ter 100
▁I 100
▁des 100
▁д 100
ль 100
▁le 100
im 100
▁T 100
▁die 100
ol 100
ic 100
▁و 100
▁C 100
▁B 100
ung 100
ig 100
ers 100
ve 100
ва 100
ten 100
ich 100
▁M 100
▁P 100
▁der 100
▁se 100
ле 100
▁les 100
▁L 100
▁D 100
▁is 100
ge 100
▁be 100
ит 100
ta 100
▁б 100
▁أ 100
▁que 100
and 100
▁pro 100
apos 100
▁м 100
▁et 100
▁на 100
▁U 100
▁– 100
▁und 100
▁z 100
▁au 100
ts 100
▁al 100
ри 100
ка 100
▁no 100
во 100
am 100
ет 100
▁ف 100
op 100
um 100
▁é 100
ен 100
▁par 100
ab 100
▁W 100
▁à 100
▁com 100
▁ein 100
▁。 100
ly 100
end 100
▁G 100
em 100
ver 100
si 100
ية 100
ти 100
▁R 100
ки 100
▁ت 100
▁ب 100
▁F 100
▁الم 100
st 100
▁on 100
ла 100
ми 100
▁2 100
▁не 100
за 100
ات 100
res 100
ant 100
▁for 100
▁y 100
че 100
▁so 100
▁that 100
▁، 100
ct 100
▁ex 100
ло 100
▁ل 100
▁ع 100
ff 100
ans 100
да 100
he 100
▁im 100
ер 100
ся 100
▁ne 100
me 100
▁у 100
der 100
ци 100
ть 100
▁su 100
▁1 100
con 100
▁est 100
▁K 100
hr 100
▁) 100
▁( 100
▁э 100
та 100
és 100
lo 100
▁ко 100
que 100
▁في 100
▁di 100
ay 100
th 100
de 100
▁co 100
▁In 100
▁el 100
ان 100
ens 100
▁pl 100
▁N 100
chen 100
▁ч 100
▁من 100
لى 100
▁20 100
au 100
▁es 100
▁ст 100
ber 100
ne 100
▁k 100
ces 100
ist 100
che 100
▁ي 100
ier 100
▁zu 100
ния 100
tr 100
▁mo 100
▁it 100
те 100
▁as 100
ля 100
▁wh 100
ate 100
di 100
tic 100
▁dé 100
se 100
▁про 100
gen 100
ere 100
pp 100
▁pr 100
ين 100
▁j 100
ار 100
▁к 100
▁une 100
▁со 100
▁إ 100
ac 100
ort 100
▁H 100
▁ch 100
▁du 100
ine 100
де 100
▁das 100
▁los 100
ние 100
▁V 100
ру 100
мо 100
▁“ 100
же 100
ion 100
conom 100
▁poli 100
ill 100
▁ра 100
eit 100
▁pour 100
du 100
▁до 100
ón 100
▁за 100
▁ac 100
ür 100
сти 100
ith 100
▁J 100
▁الأ 100
▁den 100
▁الت 100
ot 100
▁Un 100
den 100
▁что 100
▁fa 100
ств 100
urop 100
mer 100
ain 100
▁Ch 100
ach 100
▁ha 100
▁O 100
▁imp 100
ont 100
urs 100
▁ré 100
▁: 100
▁то 100
ме 100
ire 100
ven 100
ale 100
ou 100
ati 100
ity 100
до 100
ры 100
ance 100
les 100
▁а 100
▁об 100
uld 100
ble 100
pe 100
▁The 100
ско 100
▁% 100
▁res 100
lich 100
▁” 100
ски 100
ure 100
▁with 100
ма 100
ien 100
ام 100
ول 100
ag 100
▁во 100
ير 100
ду 100
▁от 100
▁st 100
▁при 100
und 100
по 100
oc 100
▁are 100
اد 100
ных 100
▁inter 100
ris 100
ше 100
ient 100
▁dem 100
▁أن 100
for 100
tre 100
ak 100
ue 100
ها 100
▁fin 100
ди 100
▁er 100
со 100
▁ре 100
▁von 100
▁& 100
▁е 100
▁ка 100
اس 100
ow 100
ста 100
▁or 100
▁على 100
ве 100
ons 100
ной 100
ще 100
▁plus 100
▁ver 100
▁ك 100
aci 100
хо 100
▁at 100
men 100
tions 100
vel 100
▁пре 100
▁ent 100
ги 100
▁fr 100
▁С 100
▁pas 100
our 100
бо 100
icht 100
▁qui 100
ют 100
▁dans 100
▁Europ 100
ér 100
▁las 100
▁го 100
af 100
▁i 100
▁sur 100
up 100
ные 100
cial 100
▁В 100
▁Re 100
ies 100
▁En 100
ais 100
mp 100
▁和 100
▁pe 100
▁在 100
▁mon 100
tis 100
▁not 100
▁US 100
▁has 100
▁man 100
iv 100
▁auf 100
▁comp 100
ви 100
▁وال 100
▁by 100
▁als 100
▁cons 100
ations 100
▁ab 100
ité 100
▁19 100
▁An 100
ong 100
og 100
ون 100
▁бы 100
▁ge 100
▁go 100
iz 100
ah 100
ud 100
вы 100
▁الع 100
сто 100
▁Z 100
able 100
▁мо 100
iti 100
▁have 100
än 100
ques 100
ча 100
ub 100
ina 100
ind 100
му 100
▁inc 100
▁tr 100
▁econom 100
▁бо 100
▁К 100
gh 100
▁вы 100
ould 100
▁ist 100
▁me 100
▁per 100
▁will 100
▁wor 100
се 100
▁ح 100
▁ه 100
▁ad 100
ите 100
ang 100
اق 100
ungen 100
▁一 100
ore 100
ну 100
▁ra 100
▁sh 100
ik 100
len 100
льно 100
sen 100
tri 100
quot 100
00 100
▁tra 100
си 100
▁кото 100
lic 100
▁» 100
▁« 100
па 100
▁sich 100
га 100
▁aus 100
ments 100
▁де 100
▁这 100
ée 100
ور 100
ational 100
сть 100
▁ن 100
▁из 100
щи 100
ما 100
▁— 100
▁il 100
ia 100
▁Н 100
▁exp 100
sch 100
ric 100
ted 100
▁coun 100
▁ag 100
▁für 100
▁это 100
▁pri 100
ves 100
▁eine 100
▁стра 100
ign 100
▁he 100
▁ser 100
▁та 100
▁aut 100
ить 100
▁wir 100
ese 100
قد 100
▁是 100
ank 100
age 100
▁del 100
▁dis 100
▁不 100
aus 100
uch 100
ck 100
▁dass 100
ste 100
▁س 100
يد 100
يا 100
we 100
ous 100
ib 100
ost 100
▁its 100
tit 100
▁from 100
را 100
ard 100
▁г 100
▁? 100
ши 100
tat 100
зо 100
ays 100
out 100
▁إلى 100
oll 100
▁was 100
od 100
▁Europe 100
▁pre 100
lob 100
uer 100
▁201 100
if 100
▁we 100
▁ф 100
мы 100
ome 100
▁了 100
▁ме 100
▁Th 100
▁П 100
ку 100
ec 100
duc 100
▁ar 100
▁; 100
▁nicht 100
ors 100
▁т 100
зи 100
ru 100
sion 100
▁China 100
▁am 100
▁mar 100
ess 100
illi 100
نا 100
▁do 100
ins 100
ischen 100
iel 100
ита 100
ern 100
ного 100
tra 100
▁more 100
ux 100
ado 100
▁gr 100
▁Le 100
▁finan 100
▁their 100
▁app 100
ord 100
form 100
▁gro 100
ции 100
▁ce 100
▁eff 100
▁mit 100
igh 100
ence 100
лю 100
ales 100
ей 100
ident 100
لا 100
лу 100
чи 100
▁раз 100
▁200 100
ство 100
▁الح 100
рав 100
vo 100
▁una 100
über 100
▁La 100
ann 100
▁ins 100
▁для 100
iss 100
ust 100
ées 100
▁ob 100
ide 100
жи 100
▁Ver 100
ear 100
لك 100
ется 100
▁glob 100
ise 100
▁ин 100
fl 100
enn 100
ism 100
▁ми 100
min 100
чески 100
ite 100
ld 100
це 100
uss 100
té 100
ond 100
ación 100
ère 100
▁para 100
bre 100
▁But 100
vern 100
▁الس 100
▁Die 100
▁ont 100
ía 100
ili 100
pr 100
▁لل 100
▁por 100
ahr 100
cy 100
ан 100
elle 100
its 100
▁как 100
▁sch 100
ll 100
ным 100
▁reg 100
▁all 100
▁И 100
ult 100
▁dur 100
рова 100
ня 100
▁intern 100
▁те 100
ait 100
aux 100
hen 100
ary 100
all 100
are 100
сле 100
▁um 100
ства 100
▁pays 100
су 100
▁中 100
▁would 100
коно 100
ones 100
▁но 100
▁дол 100
▁rec 100
▁sont 100
▁this 100
▁الن 100
▁Tr 100
her 100
ther 100
ell 100
ump 100
▁сво 100
▁sie 100
▁Е 100
ally 100
مة 100
ungs 100
ution 100
velop 100
ست 100
ose 100
ique 100
нии 100
▁son 100
wer 100
▁которы 100
сь 100
mente 100
to 100
ás 100
▁ter 100
tries 100
ذا 100
▁ri 100
▁acc 100
ный 100
▁под 100
▁hab 100
chaf 100
▁aux 100
per 100
tim 100
▁wer 100
لي 100
▁politi 100
▁А 100
▁О 100
кономи 100
▁cap 100
бы 100
ben 100
én 100
▁ста 100
vers 100
اب 100
▁war 100
kt 100
ile 100
olog 100
▁sta 100
ari 100
cess 100
tiv 100
▁économ 100
tig 100
▁я 100
▁global 100
сп 100
ange 100
ast 100
elt 100
anc 100
▁Sch 100
▁wie 100
lim 100
ров 100
▁govern 100
▁they 100
▁De 100
etz 100
oli 100
▁cre 100
anz 100
са 100
وا 100
▁pres 100
мен 100
▁ق 100
▁lo 100
▁über 100
ري 100
▁pos 100
eren 100
ствен 100
▁все 100
ech 100
▁国 100
▁werden 100
حد 100
dern 100
ction 100
ici 100
bil 100
▁Be 100
▁entre 100
av 100
▁экономи 100
▁countries 100
cl 100
ente 100
ges 100
ants 100
ires 100
ms 100
▁which 100
ере 100
▁- 100
вля 100
▁hat 100
▁бу 100
жно 100
▁الد 100
лити 100
ip 100
▁can 100
▁Б 100
omm 100
▁dies 100
▁3 100
▁av 100
жа 100
▁الب 100
▁sy 100
▁可 100
▁政 100
▁Т 100
▁than 100
är 100
gra 100
one 100
ante 100
▁comm 100
▁cont 100
be 100
▁sein 100
hn 100
ace 100
ug 100
▁ли 100
ze 100
▁emp 100
ты 100
ados 100
ön 100
nis 100
▁Les 100
عد 100
است 100
ès 100
▁si 100
art 100
▁cris 100
az 100
▁М 100
▁Af 100
▁Pro 100
▁ج 100
amp 100
▁ou 100
▁world 100
وب 100
rit 100
▁sp 100
ner 100
▁但 100
▁but 100
aire 100
gan 100
дер 100
go 100
ital 100
tschaf 100
▁полити 100
▁pub 100
▁так 100
▁Amer 100
нов 100
▁、 100
▁más 100
▁美 100
▁бе 100
▁з 100
tive 100
▁off 100
▁الق 100
▁Er 100
▁си 100
итель 100
▁د 100
▁بال 100
tern 100
▁cl 100
emp 100
▁التي 100
▁对 100
▁се 100
uf 100
▁sind 100
ied 100
cia 100
هم 100
aj 100
▁кон 100
▁import 100
ät 100
tif 100
man 100
▁str 100
ass 100
▁المت 100
ated 100
▁out 100
▁ind 100
▁Ar 100
ute 100
▁Trump 100
mes 100
▁cent 100
اً 100
ющи 100
vent 100
лее 100
ба 100
▁us 100
▁pers 100
ates 100
▁пред 100
вать 100
ря 100
▁year 100
вро 100
▁economic 100
ok 100
▁Al 100
▁gen 100
▁rel 100
ren 100
keit 100
▁pu 100
ica 100
▁الإ 100
▁人 100
يل 100
▁kön 100
ger 100
тив 100
iden 100
hal 100
▁long 100
ran 100
int 100
▁sus 100
▁prop 100
▁Д 100
▁而 100
ual 100
ción 100
▁عن 100
▁ش 100
▁ris 100
▁könn 100
▁new 100
▁bec 100
▁conf 100
▁rep 100
▁einer 100
▁经 100
▁有 100
▁Reg 100
▁че 100
tel 100
▁bet 100
lichen 100
ности 100
ase 100
▁Ge 100
tical 100
ческо 100
ette 100
ilit 100
مل 100
ré 100
▁خ 100
▁ann 100
ree 100
об 100
▁inv 100
▁wird 100
▁боль 100
land 100
▁been 100
▁sa 100
▁vor 100
ische 100
▁ass 100
ene 100
▁also 100
▁vers 100
▁Y 100
ocra 100
être 100
▁也 100
cip 100
▁„ 100
нию 100
▁op 100
▁bes 100
ême 100
رك 100
enden 100
▁Is 100
do 100
ks 100
ater 100
▁diff 100
lement 100
▁ро 100
▁其 100
tain 100
ний 100
▁lead 100
ائ 100
▁supp 100
ive 100
onn 100
▁pa 100
▁воз 100
rou 100
els 100
вер 100
ures 100
▁الص 100
▁trans 100
▁5 100
vec 100
▁leur 100
спо 100
▁auch 100
ision 100
▁ни 100
▁parti 100
يات 100
tats 100
гу 100
heit 100
▁以 100
ats 100
▁grow 100
bi 100
жет 100
idad 100
رب 100
ma 100
▁zur 100
▁Par 100
цио 100
ная 100
ets 100
▁美国 100
ühr 100
ды 100
▁将 100
ке 100
ov 100
ative 100
hl 100
رة 100
uro 100
▁É 100
par 100
ор 100
ime 100
alis 100
igen 100
▁may 100
▁他 100
▁Ein 100
illion 100
▁comme 100
▁Jahr 100
▁much 100
▁4 100
ту 100
▁avec 100
▁пере 100
▁年 100
гда 100
▁sol 100
▁resp 100
تص 100
lig 100
wo 100
гра 100
án 100
ada 100
▁ke 100
би 100
кра 100
▁one 100
ick 100
كن 100
▁durch 100
cur 100
▁As 100
▁كان 100
ША 100
اع 100
liche 100
ke 100
▁США 100
echn 100
▁It 100
▁Aus 100
ende 100
في 100
aires 100
▁haben 100
ар 100
bl 100
pl 100
▁international 100
اء 100
▁ih 100
▁vo 100
▁经济 100
pul 100
▁need 100
▁over 100
▁incl 100
och 100
▁да 100
▁الذ 100
ration 100
про 100
▁фи 100
▁bo 100
▁ste 100
ün 100
▁Р 100
▁other 100
تم 100
ras 100
▁unter 100
▁大 100
ем 100
бе 100
▁popul 100
وق 100
▁вре 100
▁his 100
дет 100
low 100
ак 100
ähr 100
cher 100
▁should 100
▁af 100
▁part 100
ными 100
сси 100
ely 100
▁после 100
▁dev 100
▁rem 100
▁car 100
ition 100
ность 100
▁EU 100
▁Rus 100
▁более 100
aten 100
ress 100
▁produc 100
▁欧 100
cep 100
كل 100
▁être 100
тов 100
ент 100
▁pré 100
▁government 100
▁ذ 100
▁lik 100
ert 100
▁public 100
▁lar 100
▁act 100
▁مع 100
▁enc 100
▁could 100
ную 100
▁For 100
▁Il 100
fic 100
ран 100
▁更 100
ille 100
▁oder 100
▁vie 100
▁الر 100
▁الف 100
▁Fr 100
▁only 100
ui 100
▁who 100
▁bien 100
ция 100
وم 100
▁ر 100
▁grand 100
وس 100
ft 100
ود 100
try 100
зу 100
ople 100
▁我 100
▁最 100
va 100
▁infl 100
▁dep 100
▁such 100
▁dec 100
ят 100
tik 100
▁которые 100
til 100
▁Но 100
ления 100
ша 100
сту 100
voir 100
▁europ 100
▁са 100
vid 100
ish 100
يم 100
حت 100
▁ـ 100
▁прав 100
▁الج 100
▁сто 100
▁су 100
▁mark 100
▁الأم 100
▁most 100
стви 100
ذه 100
▁الش 100
cht 100
irtschaf 100
▁ro 100
ное 100
ues 100
▁dar 100
▁about 100
ierung 100
ause 100
▁Mais 100
الم 100
titu 100
▁politique 100
▁prés 100
зы 100
▁einen 100
ctor 100
وف 100
nement 100
сли 100
▁develop 100
▁nach 100
ются 100
▁ele 100
▁ces 100
▁чтобы 100
lear 100
▁clim 100
▁financi 100
bar 100
▁cor 100
ход 100
▁sim 100
▁所 100
uen 100
ents 100
erg 100
▁или 100
▁gou 100
ís 100
rä 100
▁发 100
teg 100
ollar 100
ack 100
жду 100
▁national 100
▁дру 100
▁contin 100
ég 100
▁199 100
▁ges 100
▁cer 100
▁Э 100
▁high 100
▁Г 100
ame 100
ек 100
tz 100
oun 100
sia 100
ede 100
▁people 100
▁того 100
▁min 100
▁ihre 100
beit 100
oy 100
ains 100
▁Sta 100
▁political 100
нан 100
▁como 100
▁em 100
▁rég 100
▁there 100
▁явля 100
▁change 100
ión 100
ited 100
▁pol 100
▁mondi 100
ake 100
▁ما 100
▁nu 100
▁国家 100
мя 100
▁milit 100
▁now 100
▁ihr 100
▁med 100
▁techn 100
onal 100
▁sou 100
▁priv 100
лько 100
мер 100
rent 100
▁cro 100
▁По 100
▁nou 100
اف 100
ob 100
▁El 100
ков 100
тель 100
يس 100
▁sub 100
▁Ges 100
led 100
▁men 100
▁就 100
мери 100
▁Es 100
▁li 100
▁some 100
▁هذا 100
▁并 100
▁地 100
ска 100
▁even 100
▁их 100
▁sin 100
▁opp 100
▁deb 100
▁incre 100
ral 100
rie 100
▁hum 100
▁tout 100
fer 100
ero 100
ред 100
أن 100
▁mais 100
▁долж 100
ght 100
вет 100
▁Fin 100
▁même 100
дар 100
rol 100
вроп 100
▁также 100
ительно 100
▁policy 100
сте 100
iste 100
▁sign 100
▁crisis 100
▁如 100
▁Welt 100
▁éta 100
ando 100
вод 100
▁were 100
▁amé 100
▁dire 100
▁growth 100
änder 100
▁Jap 100
dad 100
rait 100
عة 100
ític 100
▁many 100
▁fait 100
تصاد 100
▁6 100
▁оп 100
▁cette 100
era 100
▁ве 100
ect 100
▁cas 100
▁为 100
▁up 100
▁ле 100
ück 100
ois 100
قة 100
вой 100
▁Se 100
وروب 100
ياس 100
اقتصاد 100
▁لا 100
عل 100
▁Кита 100
▁же 100
циа 100
vol 100
ème 100
rop 100
▁bei 100
ht 100
من 100
▁rest 100
سب 100
مو 100
uel 100
▁nom 100
кой 100
▁они 100
old 100
ade 100
▁Unter 100
iques 100
ight 100
▁gouver 100
▁nous 100
▁Est 100
▁финан 100
▁This 100
pec 100
▁USA 100
▁if 100
▁int 100
▁And 100
▁We 100
▁inf 100
▁fir 100
ores 100
▁work 100
▁country 100
▁ان 100
ings 100
▁может 100
ild 100
▁weit 100
▁país 100
stem 100
▁ses 100
▁commun 100
▁上 100
▁пра 100
ider 100
▁الخ 100
▁social 100
▁invest 100
▁été 100
isten 100
▁must 100
wick 100
▁هذه 100
▁自 100
iento 100
الي 100
alth 100
▁prof 100
vi 100
إن 100
▁ва 100
▁einem 100
▁cur 100
ление 100
лен 100
▁ча 100
ities 100
▁его 100
▁全 100
ating 100
▁inves 100
▁déc 100
tes 100
вых 100
éri 100
ew 100
▁main 100
▁financial 100
ться 100
غير 100
▁це 100
entes 100
ству 100
▁Ob 100
قي 100
▁power 100
▁wur 100
sions 100
▁zw 100
каза 100
соб 100
ень 100
▁demand 100
▁when 100
▁real 100
ديد 100
ense 100
▁years 100
Unis 100
▁ос 100
20 100
▁these 100
▁leurs 100
-1 100
▁Isra 100
▁CO 100
tie 100
▁prin 100
als 100
▁Ab 100
own 100
▁European 100
alement 100
▁polític 100
гла 100
▁prom 100
▁между 100
▁العالم 100
reat 100
▁أو 100
لة 100
بر 100
olitik 100
rica 100
▁рабо 100
حدة 100
▁tod 100
اج 100
orts 100
▁proble 100
▁rés 100
ables 100
▁ма 100
▁成 100
▁能 100
▁лю 100
ном 100
▁يت 100
▁$ 100
▁与 100
▁因 100
▁الذي 100
erv 100
io 100
▁7 100
sive 100
antes 100
▁aff 100
▁На 100
кан 100
▁États 100
neh 100
ical 100
▁autres 100
▁gegen 100
▁conc 100
ines 100
из 100
▁эти 100
tischen 100
▁diese 100
äch 100
issance 100
uct 100
ID 100
▁hist 100
000 100
▁будет 100
▁хо 100
▁Iran 100
▁noch 100
▁ils 100
▁ذلك 100
▁一个 100
▁我们 100
нима 100
▁technolog 100
▁Ко 100
ères 100
ring 100
üs 100
ister 100
ular 100
▁会 100
ambi 100
▁uns 100
▁fut 100
cid 100
▁中国 100
ثر 100
ty 100
▁éle 100
▁ref 100
род 100
▁nur 100
ige 100
iger 100
▁peut 100
▁non 100
pend 100
жда 100
▁Am 100
ament 100
▁од 100
▁monde 100
▁mem 100
act 100
▁إن 100
kra 100
▁Gr 100
▁mehr 100
▁ص 100
▁economy 100
▁рас 100
▁правитель 100
▁end 100
ax 100
ща 100
▁into 100
▁capital 100
дов 100
▁dom 100
cies 100
▁bank 100
▁maj 100
▁né 100
▁def 100
ommen 100
судар 100
▁الك 100
▁under 100
pre 100
gram 100
▁peu 100
▁sel 100
▁ولك 100
ière 100
▁hel 100
▁都 100
▁had 100
▁euro 100
rab 100
▁قد 100
▁sec 100
▁oc 100
▁ve 100
▁время 100
▁plan 100
▁partic 100
▁leaders 100
▁ten 100
▁之 100
ской 100
ory 100
бле 100
при 100
dit 100
urn 100
ög 100
lam 100
▁bas 100
▁пот 100
ثل 100
▁том 100
▁how 100
stru 100
يع 100
-19 100
▁ولكن 100
jec 100
gu 100
▁страны 100
▁what 100
▁公 100
▁gener 100
▁ком 100
▁Indi 100
▁可能 100
▁milli 100
ark 100
cal 100
▁St 100
▁wür 100
фи 100
gt 100
ités 100
pris 100
пи 100
▁march 100
▁新 100
▁Q 100
▁produ 100
reich 100
cer 100
▁وت 100
▁Russ 100
▁region 100
▁vi 100
▁зна 100
ادة 100
▁again 100
yp 100
ских 100
leich 100
зна 100
▁dém 100
gr 100
▁princip 100
логи 100
pro 100
▁cu 100
sten 100
vir 100
ör 100
▁time 100
▁dévelop 100
▁لم 100
▁المتحدة 100
dition 100
▁elle 100
hip 100
▁أي 100
titution 100
▁nor 100
▁обра 100
wn 100
los 100
клю 100
▁الدول 100
ден 100
▁So 100
▁государ 100
▁Wh 100
стра 100
▁ques 100
прав 100
ett 100
▁any 100
▁cour 100
▁perm 100
ances 100
ush 100
▁mes 100
auf 100
sible 100
▁alle 100
ней 100
ahl 100
tische 100
▁它 100
zen 100
вые 100
الية 100
ros 100
ского 100
▁soll 100
стоя 100
▁far 100
▁است 100
▁году 100
ido 100
▁Chine 100
▁Land 100
▁الو 100
▁them 100
▁Mens 100
▁буду 100
▁增 100
lie 100
ffen 100
▁contra 100
▁wenn 100
▁года 100
ßen 100
▁cré 100
▁Sy 100
aient 100
ieren 100
tigen 100
ful 100
▁ــ 100
خر 100
ough 100
▁8 100
▁Ger 100
▁помо 100
▁like 100
▁فإن 100
▁Union 100
ити 100
▁appro 100
▁don 100
▁Me 100
▁实 100
▁indus 100
▁страна 100
over 100
ciones 100
▁Dies 100
▁является 100
شر 100
шения 100
▁来 100
ix 100
▁ren 100
▁ц 100
▁تع 100
▁suc 100
чно 100
▁он 100
▁时 100
ortun 100
▁United 100
ial 100
▁Mit 100
▁多 100
▁提 100
▁ég 100
▁Au 100
▁свои 100
istan 100
ität 100
▁ры 100
itu 100
можно 100
▁lim 100
▁чем 100
▁nombre 100
ible 100
спе 100
▁prote 100
schaf 100
▁больше 100
вания 100
лы 100
▁déf 100
hor 100
зда 100
ром 100
▁Der 100
▁Chin 100
rateg 100
äl 100
гут 100
شكل 100
став 100
фор 100
ela 100
рен 100
loy 100
▁democra 100
▁финансо 100
▁human 100
▁Vor 100
ific 100
▁because 100
omp 100
▁世 100
▁mod 100
▁West 100
▁Bank 100
▁Or 100
▁Ent 100
▁الاقتصاد 100
▁mé 100
▁mal 100
▁eng 100
нием 100
ama 100
пу 100
▁deux 100
▁institu 100
▁ис 100
rough 100
▁重 100
▁Europa 100
ission 100
ولا 100
▁ا 100
tige 100
▁Menschen 100
▁indi 100
▁form 100
▁fis 100
▁well 100
▁пробле 100
нее 100
ütz 100
▁faire 100
▁économique 100
tial 100
get 100
▁други 100
▁können 100
жде 100
▁organ 100
enne 100
▁عام 100
dem 100
▁contre 100
بل 100
▁nat 100
ходи 100
ken 100
нения 100
зыва 100
▁أك 100
жен 100
▁已 100
▁мы 100
la 100
▁recent 100
▁他们 100
▁وه 100
▁serv 100
▁отно 100
▁imm 100
tique 100
ivers 100
uest 100
▁croissance 100
تي 100
лись 100
▁sc 100
руп 100
▁cri 100
▁进 100
▁从 100
ards 100
ween 100
aciones 100
лоба 100
acht 100
حة 100
allen 100
▁poten 100
▁ret 100
▁ض 100
dic 100
▁soci 100
▁aussi 100
ву 100
▁بين 100
▁major 100
▁jus 100
▁Со 100
▁America 100
▁politiques 100
ian 100
قل 100
▁Европ 100
sche 100
▁disc 100
inn 100
▁fra 100
▁Pres 100
▁zum 100
▁那 100
▁Ф 100
ند 100
ced 100
год 100
ural 100
▁u 100
▁الط 100
▁val 100
▁ever 100
▁тех 100
ationale 100
▁Russia 100
юще 100
ém 100
▁two 100
льной 100
▁interest 100
▁когда 100
▁Das 100
sident 100
▁ers 100
▁between 100
▁fund 100
idos 100
▁обще 100
▁Finanz 100
ath 100
igkeit 100
uli 100
▁созда 100
▁europé 100
wickl 100
▁Ira 100
ror 100
▁important 100
▁those 100
▁requ 100
zu 100
▁dollar 100
▁2008 100
▁Si 100
ändern 100
▁стран 100
▁aber 100
رض 100
كون 100
▁当 100
▁Japan 100
▁正 100
▁政府 100
▁تح 100
▁sans 100
▁Intern 100
вести 100
▁reform 100
▁还 100
▁increas 100
▁спо 100
льных 100
trib 100
▁无 100
هد 100
▁Ukra 100
▁ap 100
viron 100
▁问 100
rup 100
▁· 100
▁需 100
▁到 100
▁dist 100
▁только 100
tisse 100
▁поддер 100
▁全球 100
▁198 100
▁países 100
ican 100
minist 100
▁дей 100
▁gouvernement 100
▁kann 100
ком 100
eln 100
rib 100
insi 100
▁У 100
▁system 100
ices 100
▁guer 100
óm 100
▁可以 100
▁таки 100
▁tax 100
erung 100
elles 100
pect 100
▁Wirtschaf 100
estin 100
vor 100
▁contr 100
▁müs 100
▁ni 100
teurs 100
▁相 100
ноги 100
isation 100
ские 100
▁leg 100
▁her 100
ческих 100
▁ط 100
▁им 100
иту 100
том 100
▁inform 100
▁欧洲 100
▁result 100
ink 100
ties 100
▁our 100
itt 100
▁если 100
وج 100
▁col 100
use 100
▁обе 100
▁just 100
uis 100
▁pou 100
дей 100
ek 100
▁被 100
ters 100
▁Auf 100
▁économie 100
bers 100
▁gew 100
▁temp 100
ization 100
▁ди 100
▁fo 100
bility 100
тя 100
fol 100
▁simp 100
ender 100
▁ir 100
وي 100
nov 100
read 100
▁moins 100
سا 100
▁Во 100
▁bene 100
▁послед 100
nah 100
▁9 100
циона 100
ét 100
▁通 100
vention 100
▁environ 100
▁应 100
▁low 100
▁глоба 100
▁President 100
زي 100
▁возможно 100
▁жи 100
▁должны 100
▁Arbeit 100
▁COV 100
ций 100
▁方 100
ولايات 100
une 100
▁dép 100
▁问题 100
▁могут 100
لب 100
▁less 100
▁prem 100
луч 100
▁support 100
ца 100
лей 100
▁energ 100
▁dro 100
ха 100
▁añ 100
▁encore 100
istes 100
▁lie 100
▁fore 100
пас 100
▁loc 100
▁特 100
ческой 100
▁bel 100
▁уров 100
▁fe 100
weit 100
▁10 100
▁Entwickl 100
луча 100
▁下 100
iert 100
فض 100
▁while 100
▁ens 100
▁оста 100
нных 100
▁help 100
▁disp 100
▁own 100
▁пар 100
bor 100
بد 100
ارة 100
licher 100
ческие 100
▁state 100
tend 100
leg 100
▁Это 100
ющих 100
▁He 100
عم 100
اص 100
vis 100
▁benef 100
▁first 100
▁Л 100
rise 100
érie 100
▁dieser 100
▁against 100
нако 100
▁необ 100
▁总 100
▁comb 100
etzt 100
ровать 100
▁تت 100
tir 100
льные 100
реб 100
teur 100
▁Dem 100
▁الاست 100
حو 100
weise 100
жения 100
▁الأوروب 100
▁diri 100
lar 100
▁dern 100
▁要 100
▁tro 100
▁这些 100
tet 100
clear 100
▁prob 100
▁Um 100
anta 100
▁السياس 100
ourd 100
uy 100
wa 100
jo 100
льного 100
rem 100
▁Stat 100
ني 100
▁rais 100
ph 100
▁Und 100
▁gén 100
▁يع 100
▁années 100
вого 100
▁includ 100
éta 100
ler 100
▁/ 100
▁З 100
▁或 100
▁没 100
près 100
▁Estados 100
ep 100
▁nouvel 100
▁effec 100
вя 100
volution 100
till 100
▁الأس 100
ward 100
лия 100
▁sé 100
▁health 100
▁Obama 100
▁ide 100
▁па 100
▁German 100
لم 100
▁inflation 100
▁Put 100
▁UE 100
▁Nor 100
мерикан 100
▁пла 100
▁je 100
▁fond 100
▁administ 100
▁тем 100
▁бан 100
▁领 100
▁出 100
▁syst 100
▁主 100
▁trade 100
▁bef 100
▁large 100
endre 100
▁支 100
eder 100
oment 100
▁Ukraine 100
pement 100
▁COVID 100
▁民 100
ida 100
▁которо 100
▁mondiale 100
▁необходи 100
ario 100
▁пер 100
▁market 100
▁систе 100
▁Inde 100
▁mer 100
gment 100
▁быть 100
achst 100
▁met 100
рам 100
пе 100
ches 100
خل 100
▁пу 100
▁mis 100
▁Fra 100
nehmen 100
▁Mar 100
iter 100
نت 100
▁现 100
▁iss 100
▁contrib 100
lex 100
▁where 100
▁关 100
▁Ро 100
▁viol 100
▁prov 100
ится 100
طة 100
ico 100
▁Israel 100
▁Zeit 100
mit 100
▁examp 100
▁liber 100
▁wurde 100
цию 100
DP 100
чение 100
торы 100
▁غير 100
رت 100
يين 100
▁rép 100
стро 100
▁dam 100
achstum 100
ades 100
ages 100
▁بل 100
▁seine 100
iern 100
▁müssen 100
▁bis 100
▁sobre 100
räsident 100
uelle 100
▁equ 100
▁rap 100
▁beg 100
▁fac 100
▁institutions 100
▁after 100
mal 100
▁образо 100
пре 100
lan 100
▁Länder 100
ront 100
▁vis 100
сы 100
▁strateg 100
▁демо 100
▁基 100
▁изме 100
ize 100
▁At 100
▁разв 100
споль 100
▁both 100
▁资 100
▁sal 100
▁viel 100
fen 100
▁exper 100
народ 100
сов 100
▁Ma 100
▁было 100
▁比 100
▁ph 100
erst 100
▁生 100
adas 100
▁Doch 100
▁ans 100
aly 100
▁الصين 100
▁Sp 100
▁уже 100
▁könnte 100
osition 100
▁question 100
▁Pour 100
pecial 100
▁أس 100
▁investisse 100
▁нача 100
▁Unidos 100
gres 100
▁وب 100
icher 100
▁développement 100
cé 100
▁ét 100
bst 100
▁current 100
▁taux 100
▁кри 100
halten 100
▁civ 100
▁الولايات 100
▁governments 100
крати 100
▁hui 100
ein 100
▁était 100
ibt 100
▁No 100
jourd 100
فس 100
ists 100
▁dés 100
▁emer 100
▁würde 100
▁eines 100
▁mas 100
bra 100
lichkeit 100
onse 100
▁投 100
сло 100
ron 100
بة 100
yn 100
gent 100
raient 100
▁fre 100
▁pourrait 100
eld 100
يرك 100
▁program 100
co 100
ская 100
▁bud 100
ences 100
▁kn 100
▁way 100
ärk 100
▁Од 100
▁прези 100
▁mul 100
▁Х 100
▁الآ 100
▁政治 100
▁activ 100
▁必 100
▁crise 100
اض 100
ún 100
50 100
▁example 100
▁dou 100
▁كل 100
▁世界 100
venir 100
▁through 100
▁situ 100
دة 100
▁point 100
▁dont 100
▁который 100
▁anti 100
▁cal 100
▁ви 100
دي 100
▁good 100
tschaft 100
مر 100
▁المست 100
▁вой 100
▁te 100
isme 100
▁gre 100
▁accord 100
▁debt 100
▁fact 100
▁climate 100
▁pra 100
▁sen 100
▁目 100
ule 100
вая 100
▁工 100
▁没有 100
▁ur 100
▁nuclear 100
abe 100
▁process 100
▁已经 100
лся 100
عا 100
▁过 100
▁име 100
▁ак 100
▁améric 100
хра 100
▁entrepris 100
ئيس 100
cul 100
ствия 100
chie 100
undo 100
▁vol 100
por 100
iness 100
рго 100
▁bus 100
ческого 100
▁ainsi 100
rastr 100
▁make 100
كان 100
▁gra 100
▁Com 100
aking 100
▁If 100
▁同 100
▁où 100
дела 100
ather 100
▁сторо 100
▁Не 100
кую 100
▁adv 100
صب 100
▁seem 100
fe 100
▁zwischen 100
▁Im 100
▁lors 100
▁last 100
лли 100
он 100
▁ali 100
ving 100
équ 100
▁объ 100
иты 100
▁wen 100
öß 100
äh 100
ourn 100
лове 100
▁probl 100
schaft 100
▁كانت 100
▁nécess 100
▁многи 100
▁ban 100
ON 100
она 100
▁innov 100
conóm 100
▁Nach 100
gest 100
ismo 100
годня 100
ían 100
نو 100
▁кризи 100
lec 100
مكن 100
▁الان 100
▁gob 100
▁согла 100
ерь 100
▁事 100
ichts 100
auv 100
▁camp 100
tionen 100
▁Politik 100
▁become 100
вши 100
▁Ü 100
▁év 100
▁вла 100
▁adop 100
▁gobiern 100
енно 100
▁даже 100
▁également 100
ffent 100
bo 100
▁too 100
änd 100
▁чи 100
▁المح 100
▁30 100
ivent 100
▁مج 100
urch 100
▁problem 100
▁Pero 100
▁Putin 100
▁sem 100
▁рын 100
كر 100
▁Aber 100
isse 100
▁Wor 100
рга 100
teil 100
▁لت 100
▁保 100
▁197 100
▁Kon 100
▁需要 100
omen 100
▁redu 100
▁beh 100
▁уг 100
▁fol 100
▁Man 100
▁开 100
ثير 100
▁risk 100
▁Ce 100
▁Te 100
нные 100
▁vac 100
▁particular 100
▁让 100
▁исполь 100
▁On 100
▁wo 100
▁ine 100
ikan 100
راء 100
ährend 100
рая 100
amente 100
▁高 100
▁этого 100
▁GDP 100
▁وم 100
ail 100
▁гра 100
▁trava 100
▁markets 100
▁Des 100
andem 100
atz 100
▁wirtschaft 100
▁Tur 100
ур 100
▁вопро 100
руд 100
▁estab 100
▁including 100
▁ث 100
▁fiscal 100
ющие 100
aut 100
▁Ex 100
▁сле 100
▁уве 100
▁反 100
kommen 100
▁consid 100
▁其他 100
▁مت 100
▁population 100
ismus 100
ступ 100
▁само 100
▁foreign 100
▁suff 100
usam 100
рии 100
▁nouve 100
▁pros 100
▁реа 100
att 100
arly 100
▁الات 100
30 100
▁Росси 100
▁lib 100
▁services 100
шение 100
▁社 100
▁India 100
▁американ 100
▁That 100
▁back 100
▁every 100
ting 100
جا 100
▁moment 100
▁policies 100
▁respons 100
▁Chinese 100
фек 100
▁weiter 100
▁50 100
▁central 100
▁X 100
▁inde 100
▁future 100
тия 100
wirtschaf 100
وة 100
▁obs 100
▁investment 100
dr 100
▁face 100
▁commer 100
▁pass 100
aron 100
▁Dans 100
▁مثل 100
führ 100
icial 100
▁More 100
tics 100
▁place 100
عض 100
ved 100
▁challen 100
ash 100
▁很 100
▁Präsident 100
ior 100
app 100
stütz 100
▁still 100
▁président 100
▁gar 100
ites 100
بير 100
osten 100
agne 100
▁были 100
▁利 100
▁الحك 100
▁Regierung 100
▁conse 100
▁الأوروبي 100
endo 100
ucture 100
ized 100
▁grande 100
äng 100
лось 100
жение 100
ready 100
▁وأ 100
▁económ 100
▁非 100
abil 100
▁certain 100
▁后 100
▁intér 100
▁best 100
зации 100
льта 100
▁произ 100
▁führ 100
▁States 100
▁autre 100
▁fam 100
▁cost 100
▁intérê 100
▁Los 100
auc 100
▁أكثر 100
▁han 100
tiques 100
bres 100
▁Jahren 100
▁政策 100
حاد 100
нут 100
гово 100
тому 100
▁Rep 100
▁reven 100
▁augment 100
чения 100
▁signific 100
ry 100
▁只 100
иться 100
▁增长 100
▁поз 100
▁الث 100
wor 100
▁dav 100
▁bere 100
term 100
▁改 100
éra 100
miento 100
elf 100
▁дан 100
▁الا 100
ctions 100
ublic 100
eden 100
▁soc 100
▁лет 100
▁autor 100
alt 100
▁aur 100
емы 100
▁خل 100
xt 100
▁région 100
▁does 100
ata 100
red 100
▁pero 100
وية 100
▁development 100
▁العام 100
▁机 100
▁челове 100
▁ш 100
ский 100
▁Arab 100
round 100
▁secur 100
▁diffic 100
▁aujourd 100
▁American 100
▁исто 100
▁Pal 100
دان 100
цы 100
▁objec 100
جه 100
тро 100
▁ру 100
▁stand 100
▁金 100
äre 100
кры 100
▁日 100
lé 100
▁tous 100
▁immer 100
▁ihrer 100
arn 100
▁military 100
aines 100
▁如果 100
▁histor 100
▁Bush 100
▁Ö 100
cent 100
▁意 100
▁эк 100
▁tant 100
▁coop 100
▁международ 100
tien 100
▁行 100
▁будут 100
يف 100
▁educ 100
mment 100
доб 100
okra 100
ged 100
ice 100
▁consider 100
▁recon 100
ставля 100
▁الض 100
▁same 100
▁الي 100
cond 100
usammen 100
▁آ 100
▁Ins 100
▁больши 100
вно 100
▁démocra 100
ging 100
▁сч 100
▁impos 100
uses 100
off 100
▁pouvoir 100
رف 100
▁ö 100
▁без 100
iles 100
ambién 100
oci 100
▁Однако 100
▁以及 100
ious 100
▁economies 100
lique 100
▁terror 100
▁already 100
ared 100
▁mundo 100
▁Regier 100
anger 100
▁sci 100
▁Ч 100
lish 100
▁بد 100
нова 100
▁soit 100
▁exemp 100
▁сред 100
isp 100
▁دول 100
utz 100
▁individ 100
cias 100
جم 100
▁compr 100
▁peuvent 100
▁مست 100
ources 100
кто 100
▁соб 100
▁mayor 100
▁Et 100
▁Min 100
acer 100
ately 100
▁Über 100
▁Comm 100
بي 100
▁Амери 100
市场 100
kl 100
▁Jah 100
heits 100
тельно 100
vely 100
лан 100
▁compan 100
▁atta 100
▁За 100
اط 100
cle 100
▁случа 100
▁use 100
▁制 100
دم 100
▁To 100
ёт 100
ключа 100
цев 100
▁продо 100
▁орга 100
الة 100
▁enf 100
▁ma 100
▁personn 100
oin 100
▁está 100
▁initi 100
▁nue 100
ingly 100
▁today 100
▁decl 100
▁being 100
▁высо 100
zent 100
▁caus 100
▁mat 100
▁البل 100
▁gu 100
стве 100
бли 100
рабо 100
▁Pri 100
▁billion 100
реде 100
▁法 100
▁ри 100
hin 100
▁right 100
▁dirige 100
ффек 100
▁relations 100
cident 100
eng 100
▁control 100
▁结 100
зульта 100
ôt 100
▁president 100
öl 100
▁дости 100
▁banks 100
▁والم 100
fü 100
▁tot 100
▁pay 100
▁数 100
▁efforts 100
▁инвести 100
▁ЕС 100
other 100
▁sector 100
ily 100
▁regul 100
atives 100
aria 100
نظ 100
▁Mon 100
▁Afri 100
▁neces 100
▁num 100
bank 100
▁инте 100
▁认 100
▁миро 100
▁этом 100
bens 100
▁clear 100
uge 100
▁energy 100
واق 100
nements 100
قر 100
▁свя 100
▁depuis 100
▁group 100
▁tend 100
▁likely 100
▁puede 100
za 100
▁sm 100
▁essen 100
ression 100
▁которая 100
▁Hand 100
▁суще 100
▁gem 100
geb 100
po 100
▁торго 100
وض 100
zie 100
лась 100
▁Ste 100
▁加 100
▁person 100
▁seg 100
udi 100
▁развити 100
▁opportun 100
мот 100
اني 100
tement 100
еди 100
▁был 100
▁éch 100
▁prix 100
bon 100
orea 100
atique 100
ually 100
▁15 100
主义 100
▁أم 100
▁способ 100
▁UN 100
rei 100
▁2015 100
вание 100
ending 100
temp 100
▁cos 100
▁bal 100
▁concern 100
▁doit 100
▁rates 100
▁сдела 100
▁wieder 100
وى 100
lin 100
wohl 100
hand 100
▁Бо 100
▁andere 100
ality 100
▁moy 100
entral 100
وت 100
alité 100
пол 100
▁business 100
▁Трам 100
▁especial 100
▁terme 100
sian 100
рь 100
▁wich 100
▁keine 100
▁creci 100
fs 100
▁кра 100
▁الغ 100
لف 100
▁doivent 100
▁spe 100
▁administration 100
▁tien 100
▁since 100
issions 100
wh 100
пример 100
▁level 100
▁muss 100
ock 100
▁Sin 100
▁Vers 100
قت 100
▁Proble 100
رن 100
▁hin 100
▁странах 100
▁War 100
▁选 100
iens 100
atég 100
▁liv 100
ios 100
▁必须 100
étaire 100
▁hal 100
▁производ 100
▁Gro 100
кту 100
зопас 100
сколь 100
▁га 100
antage 100
iven 100
▁hand 100
▁finance 100
▁might 100
▁投资 100
ering 100
▁кли 100
wing 100
▁take 100
▁Ин 100
forder 100
امل 100
خرى 100
▁lang 100
▁entreprises 100
▁Germany 100
мини 100
▁beste 100
▁cela 100
▁前 100
erein 100
▁وفي 100
alen 100
▁strong 100
átic 100
▁Sie 100
▁результа 100
سي 100
▁bu 100
▁possible 100
вра 100
▁propos 100
يث 100
iet 100
imes 100
▁add 100
▁centr 100
nahmen 100
▁capac 100
zone 100
usion 100
gar 100
▁down 100
вле 100
▁联 100
▁France 100
▁милли 100
▁agree 100
ôle 100
▁anderen 100
▁реги 100
▁жиз 100
▁mor 100
пы 100
andid 100
▁après 100
las 100
itable 100
wand 100
▁еще 100
▁größ 100
tifs 100
▁Bre 100
▁Ne 100
▁condi 100
▁private 100
▁предо 100
arios 100
cion 100
tier 100
▁New 100
▁made 100
▁Я 100
▁因为 100
outh 100
▁社会 100
▁otr 100
▁cambi 100
▁Africa 100
▁desp 100
ether 100
▁did 100
▁Китай 100
ую 100
▁cult 100
▁security 100
▁certa 100
uk 100
bles 100
▁всего 100
bes 100
▁internationale 100
lem 100
etary 100
▁Russland 100
ils 100
oh 100
gence 100
▁Fed 100
nerg 100
▁production 100
rieg 100
sy 100
нер 100
▁tri 100
ارات 100
▁déb 100
▁util 100
▁millions 100
jet 100
▁она 100
▁million 100
вает 100
▁dest 100
▁против 100
agement 100
▁тре 100
ilidad 100
سم 100
▁sous 100
▁Med 100
▁повы 100
▁jed 100
eten 100
▁post 100
hne 100
▁política 100
curité 100
inen 100
рита 100
lä 100
▁tal 100
▁18 100
▁letz 100
▁сегодня 100
uten 100
tives 100
нение 100
▁da 100
apital 100
▁arm 100
▁202 100
illeurs 100
▁Mal 100
▁seu 100
ника 100
▁aller 100
خت 100
نب 100
lik 100
agn 100
которы 100
▁rapp 100
uv 100
▁marché 100
▁ول 100
нить 100
▁chin 100
▁without 100
▁inten 100
▁伊 100
▁rev 100
ارت 100
▁1990 100
▁компа 100
▁belie 100
▁демократи 100
▁знач 100
▁bring 100
▁экономики 100
▁Ländern 100
▁dipl 100
▁Arbeits 100
oup 100
▁univers 100
▁guerre 100
станов 100
лага 100
▁战 100
اري 100
▁ну 100
▁elles 100
acional 100
eth 100
▁temps 100
ai 100
▁vic 100
▁2020 100
▁compe 100
менно 100
▁اله 100
èmes 100
▁увели 100
▁国际 100
▁law 100
▁Pak 100
▁национа 100
▁then 100
▁reas 100
▁labor 100
zus 100
br 100
▁dollars 100
емо 100
▁det 100
iser 100
▁vez 100
chte 100
érer 100
▁Bes 100
зя 100
▁selbst 100
▁11 100
▁repr 100
▁br 100
uring 100
▁تم 100
▁tradition 100
فاق 100
fahr 100
ouse 100
▁обеспе 100
طل 100
ateurs 100
▁правительства 100
mo 100
reg 100
▁système 100
▁énerg 100
▁probable 100
▁infrastr 100
тер 100
bilité 100
▁解 100
▁World 100
▁这一 100
▁сни 100
▁también 100
дин 100
ников 100
▁action 100
▁Wirtschafts 100
▁nive 100
▁支持 100
▁роста 100
جل 100
▁años 100
▁эффек 100
hö 100
ös 100
▁发展 100
ством 100
blic 100
▁nego 100
шо 100
انية 100
▁كما 100
▁两 100
gun 100
▁reduc 100
▁2010 100
▁金融 100
▁iden 100
▁With 100
▁作 100
▁политики 100
▁Ans 100
▁étr 100
▁decision 100
▁char 100
▁Wachstum 100
usse 100
▁40 100
▁super 100
▁Jo 100
ury 100
▁rate 100
вали 100
فع 100
▁выбо 100
▁often 100
mar 100
▁extre 100
ías 100
▁better 100
▁социа 100
quer 100
less 100
смот 100
صل 100
رات 100
llt 100
▁know 100
ziel 100
onder 100
▁employ 100
▁позво 100
onds 100
▁Asia 100
▁安 100
▁argu 100
azu 100
▁impro 100
▁quel 100
▁approach 100
▁fuer 100
▁cho 100
▁banc 100
▁Con 100
▁blo 100
▁manière 100
عب 100
скую 100
▁wurden 100
▁100 100
▁sor 100
ling 100
▁toute 100
▁simil 100
▁diplom 100
▁repres 100
▁Dollar 100
▁Russie 100
▁Китая 100
▁cann 100
قا 100
▁accep 100
عار 100
▁强 100
istas 100
▁tie 100
▁государствен 100
лом 100
▁Sh 100
▁тер 100
▁prices 100
▁merc 100
▁situation 100
▁modern 100
anti 100
ghan 100
▁particip 100
▁وي 100
▁remain 100
stems 100
▁alli 100
chten 100
▁id 100
زمة 100
▁cha 100
▁order 100
فت 100
ئة 100
▁وع 100
▁fois 100
▁بعد 100
银行 100
▁الآن 100
▁долго 100
anté 100
▁使 100
▁job 100
▁безопас 100
ellen 100
▁exemple 100
影响 100
ßer 100
кон 100
▁che 100
▁包 100
▁欧盟 100
undi 100
▁Part 100
▁Та 100
лаго 100
▁seiner 100
▁做 100
▁dra 100
arm 100
▁están 100
ener 100
грани 100
▁relig 100
▁success 100
erve 100
▁vacc 100
▁course 100
amer 100
▁危 100
▁Ш 100
mber 100
جة 100
▁Islam 100
▁constru 100
нем 100
érique 100
▁самы 100
lau 100
▁seulement 100
▁bon 100
▁viele 100
AN 100
▁外 100
ومة 100
чной 100
▁Res 100
▁использо 100
▁情 100
▁خلال 100
▁minist 100
▁impact 100
▁fun 100
▁необходимо 100
▁coll 100
vé 100
▁прои 100
▁俄 100
gung 100
▁avoir 100
▁市场 100
стой 100
▁сло 100
▁sécurité 100
▁log 100
▁donn 100
thers 100
ческий 100
gn 100
▁dirigeants 100
▁cla 100
▁cannot 100
خص 100
▁Inter 100
val 100
▁этой 100
isch 100
нологи 100
вый 100
ness 100
▁كبير 100
▁由 100
politik 100
▁клима 100
je 100
нен 100
▁differ 100
ationen 100
dle 100
▁12 100
oren 100
fte 100
▁表 100
▁européenne 100
▁neue 100
aps 100
onald 100
▁Grund 100
▁变 100
ktur 100
▁poor 100
▁людей 100
atis 100
aum 100
тра 100
▁Ber 100
oss 100
aucoup 100
слу 100
lect 100
▁states 100
▁потреб 100
vesti 100
кре 100
وروبا 100
льный 100
▁around 100
▁Syri 100
xit 100
pt 100
▁bre 100
▁Her 100
▁نحو 100
▁sollte 100
▁غ 100
▁before 100
рования 100
▁других 100
ativ 100
▁sig 100
aiss 100
▁chang 100
vision 100
▁desar 100
▁продол 100
▁sondern 100
▁والت 100
omb 100
cession 100
ably 100
▁تر 100
▁cours 100
alls 100
▁There 100
▁estado 100
неш 100
عين 100
грам 100
▁gibt 100
▁santé 100
▁turn 100
ret 100
▁Etats 100
تها 100
ких 100
▁marchés 100
▁Energ 100
▁ومن 100
▁tar 100
▁amp 100
▁ay 100
war 100
▁尽 100
▁أيض 100
ban 100
▁Если 100
▁影响 100
▁coû 100
▁welt 100
table 100
▁ihren 100
▁fur 100
نية 100
ton 100
bt 100
▁follow 100
▁favor 100
عات 100
▁分 100
ديدة 100
▁Sicher 100
انيا 100
▁get 100
غي 100
▁فقد 100
▁Ang 100
lict 100
▁Une 100
ях 100
come 100
▁another 100
▁three 100
uts 100
цион 100
▁Bar 100
▁Maß 100
utions 100
ca 100
▁während 100
дент 100
▁важ 100
▁任 100
فا 100
сты 100
▁المن 100
▁العمل 100
▁Ents 100
etzen 100
▁Irak 100
▁require 100
▁الاتحاد 100
▁领导 100
ination 100
▁ange 100
▁eas 100
▁occ 100
▁预 100
вропей 100
▁conséqu 100
▁podr 100
▁among 100
▁sustain 100
راط 100
▁encour 100
▁можно 100
▁деся 100
▁Ind 100
▁rédu 100
▁bro 100
▁least 100
▁通过 100
▁Moreover 100
▁ord 100
▁parte 100
▁инф 100
▁Glob 100
▁пол 100
▁force 100
стру 100
▁continu 100
stand 100
▁aument 100
ateral 100
hungen 100
غم 100
▁合 100
лого 100
▁Verein 100
▁信 100
▁уси 100
iddle 100
▁мире 100
hm 100
следо 100
нь 100
▁产 100
erk 100
▁المنا 100
des 100
▁très 100
ischer 100
шь 100
▁هو 100
ركات 100
enses 100
▁196 100
▁英 100
▁угро 100
▁Stra 100
duk 100
bas 100
▁ж 100
▁ее 100
▁oblig 100
OR 100
▁second 100
tellen 100
▁companies 100
عية 100
da 100
rain 100
▁öffent 100
▁zwe 100
раз 100
▁Indeed 100
cil 100
ОН 100
▁forces 100
تى 100
ira 100
▁насе 100
▁Vol 100
erstand 100
▁各 100
IB 100
tegra 100
timm 100
▁следу 100
▁разви 100
▁平 100
▁巴 100
▁invers 100
▁образом 100
▁accoun 100
▁менее 100
▁Afghan 100
▁поло 100
▁dazu 100
казыва 100
▁此 100
▁гла 100
ließ 100
▁gas 100
▁commit 100
▁долла 100
▁建 100
▁difficult 100
▁partie 100
▁ful 100
▁auc 100
▁几 100
▁этих 100
ansi 100
▁سب 100
illionen 100
kon 100
гре 100
▁achie 100
▁politischen 100
▁поддерж 100
▁Iraq 100
▁press 100
ким 100
▁past 100
ститу 100
▁بشكل 100
▁sug 100
▁因此 100
▁основ 100
ura 100
▁increase 100
▁بن 100
▁25 100
▁得 100
ورة 100
▁未 100
▁consum 100
▁债 100
ey 100
▁фак 100
▁effet 100
▁nun 100
▁alors 100
عي 100
▁цент 100
▁受 100
нет 100
пита 100
▁много 100
форма 100
ude 100
orm 100
▁应该 100
▁Wo 100
▁agric 100
ium 100
▁bar 100
罗斯 100
▁Klim 100
ération 100
▁hom 100
asion 100
▁该 100
▁banques 100
idas 100
▁مح 100
gleich 100
▁tou 100
ds 100
▁They 100
▁lif 100
▁South 100
▁meas 100
▁мира 100
wirtschaft 100
▁Wenn 100
ager 100
▁particuli 100
▁Unternehmen 100
نة 100
ross 100
▁mill 100
flation 100
▁Ak 100
▁Wir 100
от 100
يرة 100
▁abs 100
ächlich 100
▁част 100
enda 100
▁حتى 100
ته 100
вают 100
▁Go 100
▁role 100
vement 100
▁mesures 100
▁developing 100
▁génér 100
▁технологи 100
▁représ 100
▁fon 100
▁Аф 100
▁بم 100
ever 100
▁Jahre 100
▁sollten 100
▁تق 100
▁органи 100
▁nos 100
▁continue 100
قيق 100
▁2009 100
fin 100
час 100
▁月 100
▁سوف 100
▁short 100
▁sour 100
éné 100
▁计 100
arbeit 100
▁приня 100
▁weltweit 100
▁pal 100
▁الأميرك 100
▁Се 100
▁ze 100
▁была 100
▁allow 100
▁fl 100
скольку 100
oire 100
ules 100
▁2016 100
▁diesem 100
▁author 100
▁програм 100
▁حد 100
▁damit 100
▁waren 100
▁trou 100
веде 100
ейчас 100
TO 100
货币 100
▁它们 100
▁Euro 100
termin 100
▁1, 100
äischen 100
▁very 100
▁дела 100
кла 100
▁milliards 100
jà 100
▁lui 100
▁vom 100
▁收 100
▁grandes 100
▁esp 100
▁dig 100
gyp 100
▁oil 100
▁Wie 100
▁domes 100
▁month 100
▁conflict 100
реди 100
ières 100
wend 100
▁play 100
▁Gesch 100
wie 100
ying 100
▁seit 100
▁équ 100
▁este 100
▁Pl 100
▁avait 100
▁第 100
▁bl 100
▁Diese 100
▁stratég 100
▁总统 100
▁foc 100
▁intel 100
▁beaucoup 100
▁决 100
cho 100
ге 100
tant 100
cing 100
▁verb 100
▁проц 100
▁vir 100
▁Pakistan 100
▁rather 100
▁ho 100
▁éc 100
ghts 100
▁особ 100
▁establish 100
▁Ира 100
ваться 100
▁dos 100
▁zurück 100
▁productiv 100
иму 100
▁peace 100
▁Por 100
▁crecimiento 100
▁women 100
теги 100
▁сокра 100
▁цен 100
mög 100
▁свое 100
▁共 100
▁ihn 100
ствительно 100
▁gobierno 100
erer 100
ocr 100
сс 100
▁х 100
▁управ 100
▁child 100
▁حيث 100
▁déjà 100
▁hö 100
▁position 100
стью 100
▁permet 100
test 100
▁higher 100
ruption 100
ande 100
▁阿 100
▁不是 100
▁einz 100
пад 100
▁ej 100
кие 100
▁sera 100
▁于 100
▁pandem 100
▁уч 100
▁所有 100
arse 100
▁nature 100
ван 100
▁即 100
▁fem 100
▁60 100
ibles 100
▁needs 100
▁ress 100
iety 100
ност 100
▁importante 100
wir 100
▁ограни 100
▁mej 100
▁hard 100
▁علي 100
ficit 100
▁amb 100
▁mainten 100
▁él 100
▁conditions 100
▁некоторы 100
iem 100
▁économiques 100
▁Bere 100
▁круп 100
▁transform 100
▁extr 100
رائ 100
▁2000 100
▁competi 100
▁différ 100
ys 100
▁ceux 100
льным 100
▁ز 100
ياً 100
fici 100
▁Qu 100
▁subs 100
▁weak 100
▁oper 100
▁导 100
▁etwa 100
▁вер 100
▁Cor 100
кого 100
▁расп 100
igt 100
▁avant 100
▁International 100
▁view 100
▁conv 100
▁капита 100
▁许 100
▁ответ 100
▁Ка 100
▁内 100
▁embar 100
itä 100
cheid 100
▁推 100
▁litt 100
рон 100
▁conn 100
most 100
▁Bo 100
вто 100
لاً 100
ريق 100
▁всех 100
▁собствен 100
企业 100
halb 100
▁воен 100
▁official 100
▁total 100
▁trop 100
▁这样 100
▁rapide 100
▁европей 100
▁尽管 100
▁Schw 100
▁protection 100
▁prior 100
thing 100
▁nota 100
▁0 100
▁toward 100
▁amer 100
cir 100
▁small 100
▁All 100
чен 100
▁特朗 100
вым 100
ез 100
cen 100
ispiel 100
▁президен 100
ета 100
▁Amérique 100
ети 100
▁特朗普 100
▁бед 100
▁pauv 100
чных 100
▁俄罗斯 100
▁благо 100
▁есть 100
▁gouvernements 100
▁2014 100
▁letzten 100
zeit 100
iers 100
ricaine 100
▁Regierungen 100
▁especially 100
▁гражда 100
▁fail 100
▁Cons 100
гли 100
▁estim 100
▁Donald 100
тиво 100
acy 100
هر 100
▁кто 100
▁недо 100
▁led 100
aine 100
▁open 100
чь 100
▁пе 100
▁personnes 100
ünd 100
▁提供 100
▁wäre 100
мента 100
▁над 100
▁politische 100
▁仍 100
▁North 100
▁PIB 100
▁come 100
ًا 100
▁إذا 100
▁inclus 100
▁ya 100
▁emplo 100
▁Investi 100
▁enti 100
با 100
▁members 100
▁put 100
▁мир 100
▁прави 100
gress 100
▁说 100
ares 100
▁أخرى 100
▁Geld 100
▁année 100
лют 100
▁show 100
▁лишь 100
▁يكون 100
ieux 100
▁during 100
idades 100
ichte 100
▁groß 100
▁Führ 100
▁technologies 100
med 100
▁своих 100
▁дохо 100
ession 100
чить 100
▁fundament 100
▁هي 100
under 100
دام 100
ؤس 100
▁État 100
مية 100
▁cooper 100
▁проце 100
▁secteur 100
▁condu 100
▁оказа 100
▁dette 100
сса 100
▁опреде 100
▁eing 100
▁نظ 100
▁appar 100
▁нам 100
▁East 100
ölk 100
▁Tod 100
▁أوروبا 100
olle 100
▁next 100
▁needed 100
итай 100
▁nouvelle 100
▁só 100
▁bor 100
▁Tats 100
hol 100
▁candid 100
▁случае 100
▁provid 100
▁pat 100
▁Entwicklung 100
▁address 100
change 100
▁environment 100
▁理 100
яза 100
▁weniger 100
▁case 100
abor 100
▁вос 100
▁стратеги 100
▁каж 100
grund 100
▁تش 100
▁money 100
▁influ 100
▁المالية 100
▁domin 100
▁kon 100
▁لكن 100
▁где 100
▁Ital 100
▁Nations 100
▁财 100
▁sever 100
ерма 100
стре 100
▁raison 100
اقة 100
▁Eine 100
▁compte 100
▁кор 100
ritann 100
úblic 100
▁Fe 100
▁few 100
щих 100
▁domestic 100
▁Haus 100
▁الرئيس 100
▁rich 100
▁him 100
▁失 100
▁Nord 100
▁serait 100
ols 100
▁ات 100
▁budg 100
rupp 100
▁care 100
▁يمكن 100
▁whether 100
▁Ц 100
igr 100
▁Organ 100
▁实现 100
سل 100
hold 100
ises 100
▁эффектив 100
▁许多 100
اعت 100
▁Ве 100
▁fort 100
folg 100
ин 100
lev 100
жать 100
▁重要 100
▁Br 100
سبة 100
فر 100
▁Ac 100
ides 100
▁ev 100
▁包括 100
يون 100
▁democracy 100
▁NE 100
▁يج 100
▁great 100
бира 100
undial 100
▁Geor 100
ias 100
▁承 100
▁neg 100
ador 100
▁vul 100
ave 100
▁big 100
▁ble 100
▁könnten 100
▁schw 100
▁intérêt 100
▁local 100
▁institution 100
▁fue 100
▁risque 100
组织 100
▁Евро 100
▁Staaten 100
▁свою 100
▁للت 100
▁بعض 100
▁niveau 100
▁NA 100
▁ign 100
▁industri 100
стато 100
▁means 100
тий 100
▁отноше 100
▁Minister 100
مار 100
▁Afghanistan 100
itiz 100
amiento 100
▁weil 100
geben 100
▁sum 100
▁When 100
▁positi 100
▁ба 100
ющей 100
лиз 100
adores 100
贸易 100
них 100
fris 100
haf 100
ends 100
▁усло 100
▁étrang 100
ederal 100
sta 100
▁обла 100
▁build 100
бя 100
▁economía 100
فاع 100
▁little 100
ضع 100
шей 100
ناء 100
▁وإ 100
ünf 100
▁серь 100
▁الأمر 100
صبح 100
▁hay 100
▁béné 100
lier 100
▁fall 100
fra 100
▁nouveau 100
▁políticas 100
▁هنا 100
цией 100
▁presiden 100
▁todo 100
ному 100
ahlen 100
isl 100
way 100
▁этот 100
ode 100
IN 100
يز 100
häng 100
кти 100
▁евро 100
▁transi 100
▁защ 100
▁认为 100
рения 100
ruct 100
ogn 100
▁concl 100
тить 100
▁monetary 100
▁Macht 100
▁Sec 100
▁fer 100
▁обо 100
▁costs 100
clé 100
▁aliment 100
▁指 100
gl 100
▁创 100
▁altern 100
▁experien 100
▁تد 100
▁长 100
виси 100
▁1980 100
щё 100
▁compar 100
▁significant 100
▁besch 100
▁себя 100
чные 100
dings 100
имо 100
▁рост 100
tent 100
▁Entwicklungs 100
وز 100
▁menos 100
été 100
tice 100
▁Biden 100
quent 100
▁своей 100
▁большин 100
▁德 100
aben 100
▁jedoch 100
▁внут 100
▁等 100
▁本 100
▁capit 100
▁Gesund 100
chaft 100
▁Cong 100
ники 100
▁000 100
▁持 100
▁direc 100
сро 100
▁export 100
▁Groß 100
ولة 100
▁millones 100
zial 100
اصة 100
abei 100
▁сейчас 100
▁являются 100
▁смо 100
▁base 100
▁面 100
дом 100
▁свобо 100
▁обяза 100
▁协 100
▁иде 100
▁ohne 100
قط 100
▁reason 100
ун 100
▁1. 100
▁Teil 100
▁direct 100
ará 100
ject 100
▁Па 100
mittel 100
▁divers 100
▁2007 100
обще 100
affen 100
▁контро 100
▁成为 100
صول 100
ومات 100
▁NEW 100
▁mus 100
▁sav 100
▁sup 100
▁власти 100
▁энер 100
ners 100
▁focus 100
▁أع 100
▁英国 100
urz 100
▁البلدان 100
стойчи 100
▁време 100
▁Pre 100
▁用 100
сом 100
▁气 100
▁bil 100
▁bereits 100
▁获 100
▁Ris 100
раи 100
دى 100
▁Schul 100
▁heute 100
بار 100
▁عند 100
▁cir 100
baj 100
▁cru 100
▁Allem 100
ués 100
رق 100
лек 100
يج 100
vious 100
▁уча 100
▁влия 100
▁limit 100
▁развива 100
أس 100
gangen 100
▁event 100
▁election 100
ским 100
▁curren 100
▁16 100
▁cuando 100
▁bra 100
▁denen 100
▁счита 100
▁сот 100
▁النظ 100
▁mög 100
▁effective 100
tisch 100
ностью 100
▁каче 100
▁接 100
▁الوق 100
▁Из 100
▁cause 100
него 100
▁sanc 100
▁represent 100
▁导致 100
▁progress 100
schein 100
▁Герма 100
rican 100
▁Sel 100
▁причи 100
▁мас 100
▁2011 100
ni 100
▁希 100
▁但是 100
▁reci 100
▁share 100
▁National 100
▁territ 100
▁workers 100
яв 100
▁inst 100
▁regional 100
ieurs 100
▁free 100
▁further 100
▁implement 100
▁民主 100
▁Korea 100
▁采 100
▁Entscheid 100
iten 100
ках 100
рован 100
▁why 100
▁المر 100
eins 100
kungen 100
tific 100
▁ге 100
▁这种 100
▁التع 100
ined 100
▁decades 100
قراط 100
▁Amerik 100
▁problems 100
▁poder 100
▁Cette 100
▁sche 100
▁особенно 100
▁possi 100
▁Bed 100
▁cat 100
rollo 100
ours 100
▁amerikan 100
▁Как 100
▁Lib 100
▁nuclé 100
▁услови 100
вед 100
▁الذين 100
▁different 100
▁certains 100
▁原 100
▁计划 100
oud 100
▁Mo 100
وك 100
▁Wirtschaft 100
▁pourraient 100
شار 100
▁net 100
anced 100
iner 100
▁income 100
▁essenti 100
▁低 100
тии 100
▁décl 100
▁гово 100
▁membres 100
▁While 100
▁va 100
▁оче 100
▁dieses 100
unt 100
▁infrastructure 100
ствует 100
▁mesure 100
▁Mus 100
يمقراط 100
роят 100
▁Pol 100
▁tas 100
▁chines 100
▁事实 100
твер 100
▁américain 100
▁着 100
▁货币 100
▁му 100
▁within 100
▁Las 100
▁Russian 100
▁financière 100
▁públic 100
▁primer 100
▁pueden 100
▁تن 100
чень 100
▁influence 100
ogra 100
▁التج 100
▁financier 100
▁个 100
▁education 100
▁star 100
▁confront 100
▁确 100
unden 100
su 100
istance 100
▁information 100
▁mejor 100
itim 100
▁inté 100
▁Afrique 100
▁exist 100
▁Milli 100
▁2012 100
рез 100
▁وس 100
▁run 100
▁hop 100
▁happ 100
бой 100
▁gef 100
▁Tra 100
▁access 100
▁бю 100
ator 100
▁китай 100
acion 100
ших 100
рия 100
▁194 100
▁return 100
▁siste 100
▁西 100
▁Aut 100
▁vale 100
▁السل 100
utsch 100
▁trois 100
▁land 100
▁работа 100
йти 100
▁neuen 100
▁nombreux 100
▁John 100
▁看 100
▁würden 100
▁目标 100
部分 100
▁rise 100
▁américaine 100
▁消 100
itizens 100
oi 100
wort 100
▁ries 100
▁которых 100
iben 100
▁Palestin 100
emble 100
air 100
eres 100
▁поч 100
▁企业 100
iled 100
▁сов 100
▁них 100
▁ém 100
ск 100
▁откры 100
▁Ä 100
▁coal 100
▁gran 100
▁gesch 100
ynam 100
▁ско 100
▁ahor 100
▁转 100
▁无法 100
ätz 100
▁направ 100
▁scien 100
▁longer 100
личе 100
▁Sud 100
▁russ 100
▁мест 100
▁simple 100
▁allem 100
▁zone 100
▁recogn 100
▁cy 100
▁жен 100
▁Millionen 100
▁remains 100
▁almost 100
▁pens 100
▁успе 100
▁技 100
▁wichtig 100
рем 100
▁rights 100
▁سي 100
▁tiemp 100
▁рез 100
▁вс 100
▁zwei 100
▁конф 100
▁规 100
ength 100
▁red 100
хи 100
وات 100
▁price 100
verage 100
▁вме 100
▁my 100
▁价 100
▁One 100
itig 100
▁lég 100
فق 100
▁наход 100
يلة 100
▁进行 100
▁луч 100
▁multil 100
▁former 100
▁others 100
▁opposition 100
▁model 100
aff 100
ظل 100
▁These 100
▁darauf 100
▁العالمية 100
▁减 100
▁era 100
▁leadership 100
▁&# 100
ятся 100
▁2013 100
▁прош 100
щее 100
لاح 100
▁Zusammen 100
вое 100
▁&#9 100
▁stim 100
▁стороны 100
▁reach 100
itz 100
▁危机 100
ième 100
вал 100
▁souvent 100
tention 100
▁¿ 100
▁otros 100
▁dri 100
▁десяти 100
▁trabaj 100
▁Staats 100
▁notamment 100
trie 100
▁подоб 100
▁spending 100
▁set 100
▁النا 100
▁Western 100
▁正在 100
▁带 100
▁globale 100
cted 100
▁показа 100
▁negoti 100
▁data 100
▁desc 100
▁empres 100
▁bede 100
▁credit 100
▁hät 100
iliz 100
ista 100
▁meet 100
▁politici 100
▁风 100
▁能够 100
▁очень 100
▁économies 100
▁rece 100
astrop 100
dom 100
▁key 100
tieren 100
▁changement 100
▁правительство 100
▁actuelle 100
ucht 100
unter 100
▁donc 100
▁дву 100
▁besoin 100
▁gel 100
▁70 100
völk 100
▁By 100
▁自己 100
▁например 100
▁Ph 100
▁Yet 100
▁Internet 100
▁esc 100
▁груп 100
nung 100
jours 100
▁印 100
ью 100
▁lí 100
▁som 100
▁atte 100
▁многие 100
▁sólo 100
▁للم 100
▁respon 100
رد 100
▁проблемы 100
rän 100
▁Allemagne 100
▁ven 100
tically 100
▁Parte 100
▁ä 100
▁низ 100
пла 100
мент 100
▁found 100
▁ядер 100
▁independ 100
▁think 100
▁борь 100
▁citizens 100
▁بت 100
ichen 100
▁عمل 100
iment 100
▁Verb 100
▁развития 100
rik 100
▁Dep 100
▁toujours 100
▁yet 100
osed 100
IP 100
▁increasingly 100
uda 100
▁problème 100
klär 100
ho 100
تما 100
▁hold 100
мой 100
▁情况 100
com 100
▁start 100
▁这个 100
▁地区 100
▁безопасности 100
▁России 100
спор 100
▁Sau 100
▁Milliar 100
urer 100
▁provide 100
▁став 100
▁Risik 100
nisse 100
زيد 100
▁мер 100
▁life 100
iele 100
▁Brexit 100
сколько 100
▁lack 100
▁embargo 100
▁ولا 100
▁Wahl 100
conomic 100
▁respect 100
céd 100
rank 100
▁mettre 100
▁potential 100
tor 100
▁предпо 100
▁Republic 100
صر 100
▁After 100
▁solution 100
▁however 100
▁Gew 100
▁hacer 100
▁resources 100
gew 100
gang 100
▁dim 100
œuv 100
▁cambio 100
▁Ass 100
upart 100
▁plupart 100
ческим 100
▁现在 100
utôt 100
ierte 100
▁2030 100
ähl 100
▁campa 100
ote 100
unes 100
итуа 100
ковод 100
▁секто 100
▁diesen 100
▁интере 100
▁issue 100
▁наи 100
▁prê 100
▁say 100
سبب 100
arian 100
▁corpor 100
▁وهو 100
▁Maßnahmen 100
▁opin 100
pte 100
▁notre 100
▁confi 100
▁given 100
▁parties 100
▁claim 100
▁itself 100
▁ago 100
▁80 100
▁وا 100
▁renfor 100
▁used 100
▁却 100
xim 100
▁rôle 100
▁Demokra 100
illes 100
▁emerging 100
▁actual 100
▁machen 100
▁réc 100
,000 100
▁civil 100
▁seems 100
▁enough 100
▁поскольку 100
▁prevent 100
▁Unterstütz 100
▁tre 100
▁Gree 100
▁reste 100
اسية 100
▁Prem 100
▁Mex 100
▁Ham 100
▁призна 100
feren 100
▁const 100
▁budget 100
ache 100
ركة 100
▁potenti 100
▁должно 100
▁системы 100
▁Pr 100
isant 100
▁entwick 100
▁женщи 100
igration 100
вид 100
▁similar 100
▁sanctions 100
dos 100
isen 100
▁له 100
▁resear 100
▁؟ 100
▁find 100
▁étaient 100
akers 100
▁agreement 100
▁مما 100
cu 100
▁Imp 100
▁核 100
indre 100
▁see 100
▁解决 100
▁ber 100
icient 100
tag 100
▁Ра 100
ORK 100
ltim 100
▁тра 100
сур 100
▁attack 100
▁vot 100
▁versch 100
row 100
ствие 100
▁ку 100
▁cit 100
▁améli 100
▁количе 100
▁threat 100
prä 100
▁Prozent 100
▁Са 100
▁ши 100
▁particularly 100
▁présent 100
сно 100
▁résul 100
اح 100
▁خط 100
▁населения 100
▁davantage 100
zehn 100
ators 100
▁严 100
ception 100
▁risks 100
ahrschein 100
afür 100
▁неда 100
▁Ces 100
▁Gener 100
▁analy 100
▁massive 100
стов 100
▁gegenüber 100
льное 100
щая 100
▁deli 100
▁peri 100
▁extra 100
▁ejemp 100
бу 100
hör 100
▁IM 100
министра 100
icos 100
▁serious 100
▁soli 100
ellement 100
▁research 100
▁17 100
وع 100
джет 100
▁ger 100
ps 100
▁المد 100
▁финанси 100
ском 100
▁والتي 100
▁meisten 100
▁rapport 100
▁المع 100
hung 100
▁four 100
юз 100
пра 100
дра 100
▁Cl 100
▁极 100
صد 100
طقة 100
шего 100
▁fast 100
▁broad 100
▁Fl 100
▁Ir 100
▁ich 100
ним 100
▁ú 100
ждения 100
▁人们 100
orta 100
▁يست 100
▁individual 100
▁сохра 100
▁教 100
cio 100
пер 100
▁though 100
бро 100
▁إلا 100
▁mucho 100
▁рефор 100
▁Region 100
fass 100
▁Fol 100
äd 100
▁nouvelles 100
▁президент 100
▁Produk 100
unid 100
▁look 100
▁2001 100
سة 100
ruck 100
▁пор 100
▁general 100
▁food 100
▁fonction 100
▁Ro 100
▁Да 100
ulation 100
▁understand 100
gesch 100
▁неза 100
▁growing 100
▁number 100
▁reduce 100
▁regime 100
▁recently 100
▁questions 100
gesichts 100
ird 100
▁增加 100
ility 100
▁stat 100
▁benefits 100
وسيا 100
akes 100
▁violence 100
▁innovation 100
▁systems 100
▁strength 100
▁贸易 100
▁وك 100
▁النمو 100
aza 100
▁cad 100
كثر 100
▁deep 100
▁2017 100
▁deal 100
▁conserv 100
▁investissements 100
igten 100
reichen 100
▁desarrollo 100
▁просто 100
▁pandemic 100
▁globalen 100
▁Инди 100
▁Си 100
▁algun 100
▁؛ 100
▁وقد 100
▁arr 100
▁YORK 100
ierten 100
▁jam 100
▁помощ 100
сла 100
tsch 100
▁سياس 100
▁sogar 100
▁mondial 100
▁نفس 100
▁danger 100
▁المج 100
▁saf 100
▁край 100
▁الل 100
мь 100
▁开始 100
▁organiz 100
жида 100
▁occident 100
смотря 100
▁Commission 100
tiert 100
▁eurozone 100
▁流 100
uls 100
ability 100
▁interests 100
elves 100
zahl 100
ither 100
▁真 100
▁IMF 100
ساعد 100
▁left 100
▁Nous 100
▁Афри 100
▁Европы 100
▁Kre 100
▁普 100
▁руковод 100
▁Ю 100
line 100
▁фор 100
▁never 100
▁integra 100
ём 100
▁perspec 100
▁gleich 100
▁ganz 100
роме 100
▁What 100
ffe 100
▁amélior 100
▁you 100
▁حين 100
▁войны 100
▁año 100
▁Япо 100
endant 100
▁ملي 100
▁hecho 100
▁Nat 100
▁валют 100
itions 100
ically 100
ämp 100
ское 100
▁显 100
▁Ма 100
▁deut 100
rer 100
▁потому 100
eter 100
ствовать 100
éd 100
unkt 100
▁Not 100
▁dafür 100
▁greater 100
▁gemeins 100
▁коне 100
▁таких 100
▁climatique 100
щие 100
▁一些 100
aged 100
кое 100
حي 100
▁التح 100
ческая 100
▁mati 100
▁devrait 100
▁обществен 100
راً 100
èg 100
▁vari 100
▁العالمي 100
can 100
▁effic 100
lagen 100
encia 100
icios 100
▁приве 100
▁другие 100
eler 100
▁Milliarden 100
▁хоро 100
▁بح 100
▁граждан 100
aî 100
▁авто 100
ließlich 100
واجه 100
ступа 100
▁قبل 100
تخ 100
▁desde 100
три 100
▁dabei 100
لس 100
знача 100
▁14 100
▁给 100
▁Ме 100
▁estadounid 100
▁faut 100
▁气候 100
فة 100
انب 100
▁implic 100
▁plusieurs 100
زا 100
▁неф 100
сит 100
▁NATO 100
▁fron 100
▁устойчи 100
اجتما 100
ман 100
▁décision 100
CE 100
▁fal 100
▁мень 100
amen 100
▁sowie 100
minister 100
mas 100
▁stark 100
▁голо 100
rement 100
ète 100
stead 100
▁нео 100
▁arri 100
▁لن 100
äuf 100
▁银行 100
▁每 100
عادة 100
زم 100
cis 100
▁المس 100
ologie 100
▁向 100
▁два 100
▁multi 100
ions 100
▁Landes 100
▁ausge 100
▁Coun 100
▁dise 100
▁بش 100
void 100
▁technology 100
pf 100
▁thus 100
ondere 100
▁issues 100
▁сотруд 100
▁ситуа 100
▁dic 100
▁Все 100
▁Global 100
▁.. 100
▁Европей 100
▁tiempo 100
▁dann 100
ён 100
mos 100
спек 100
limin 100
,5 100
▁取 100
utschland 100
▁progra 100
▁региона 100
▁period 100
▁publique 100
قدم 100
▁主要 100
▁anci 100
▁bess 100
▁Фран 100
▁многих 100
▁agricult 100
▁Krieg 100
▁تكون 100
▁travail 100
▁consomm 100
▁excl 100
ابات 100
▁Kapital 100
▁carbon 100
▁首 100
тки 100
зии 100
كت 100
этому 100
▁хотя 100
▁ensure 100
bs 100
▁‐ 100
دد 100
▁权 100
▁стать 100
ciales 100
▁shif 100
▁ill 100
лению 100
quelle 100
▁reforms 100
▁десятиле 100
▁common 100
▁hatte 100
▁随 100
▁ejemplo 100
opoli 100
stoff 100
cios 100
▁plutôt 100
енциа 100
ителей 100
ément 100
▁rapid 100
▁nécessaire 100
▁challenges 100
▁lug 100
▁исследо 100
▁存 100
ered 100
▁jamais 100
▁demande 100
▁安全 100
ommun 100
makers 100
▁就是 100
▁confl 100
▁œuv 100
tung 100
▁Ban 100
▁полу 100
onst 100
▁明 100
kenn 100
нами 100
▁meille 100
▁العديد 100
▁politics 100
▁Univers 100
rug 100
▁поль 100
emos 100
▁стаби 100
راض 100
▁связа 100
üng 100
▁引 100
▁至 100
▁ог 100
▁لأ 100
▁Mac 100
▁history 100
goci 100
فضل 100
вую 100
ture 100
▁ef 100
▁Unterstützung 100
▁représent 100
▁each 100
▁transition 100
▁未来 100
▁jou 100
▁90 100
▁journ 100
legen 100
▁2005 100
▁Хо 100
▁mois 100
▁Techn 100
▁تست 100
zug 100
▁siè 100
essen 100
▁Haushal 100
▁unterstütz 100
▁jusqu 100
▁strategy 100
▁центра 100
▁problèmes 100
▁которое 100
èrement 100
▁Rück 100
rir 100
▁adap 100
▁自由 100
▁poin 100
port 100
▁eux 100
жении 100
▁Even 100
▁Pe 100
▁mean 100
▁resul 100
fois 100
ricains 100
vest 100
▁jobs 100
▁Klima 100
рование 100
▁再 100
рой 100
▁yo 100
▁وأن 100
▁commen 100
-20 100
▁лидер 100
▁necess 100
▁ци 100
▁军 100
▁нет 100
гули 100
▁nationale 100
▁债务 100
лиш 100
▁Volks 100
▁últim 100
▁达 100
▁aband 100
▁Seit 100
▁semble 100
▁digital 100
▁thre 100
▁value 100
قبل 100
شت 100
▁create 100
▁parce 100
сут 100
▁кризиса 100
▁able 100
нению 100
▁Investitionen 100
كي 100
льная 100
▁baj 100
▁工作 100
ways 100
▁Fir 100
▁pare 100
ontrol 100
▁eigen 100
▁Japon 100
▁resol 100
▁研 100
▁comprom 100
▁技术 100
formes 100
erte 100
▁sehr 100
▁terms 100
atiques 100
▁تج 100
▁liberal 100
▁Deutschland 100
▁children 100
dar 100
alisation 100
▁protest 100
quid 100
▁normal 100
▁Li 100
▁islam 100
▁todos 100
▁struct 100
ارج 100
ВП 100
▁comple 100
▁ещё 100
▁Ad 100
udes 100
▁которой 100
▁nivel 100
▁Трампа 100
▁orig 100
▁firms 100
AR 100
key 100
cción 100
▁2019 100
▁стиму 100
▁ليس 100
▁Krise 100
ющим 100
деми 100
дви 100
ющихся 100
كم 100
▁premier 100
ربما 100
unft 100
rench 100
▁port 100
▁autom 100
▁完 100
▁налого 100
▁представ 100
▁collec 100
▁pris 100
▁расхо 100
▁monétaire 100
▁глав 100
нять 100
▁émer 100
ordin 100
▁الإن 100
▁бога 100
فعل 100
яви 100
.000 100
воо 100
▁соот 100
asse 100
▁体 100
▁ailleurs 100
▁stimul 100
▁distrib 100
лез 100
▁включа 100
▁chinois 100
heiten 100
▁cr 100
убли 100
▁comer 100
▁تأ 100
ниче 100
▁pen 100
▁экономического 100
▁coup 100
кам 100
▁решения 100
amos 100
▁destin 100
▁13 100
▁seinen 100
vice 100
▁климата 100
▁ép 100
▁... 100
ظم 100
▁внима 100
▁такие 100
▁half 100
▁slow 100
▁move 100
▁effort 100
▁Bür 100
ya 100
besondere 100
هي 100
▁Для 100
▁Währ 100
▁tiene 100
icas 100
vés 100
▁带来 100
▁风险 100
▁德国 100
▁цель 100
▁besteht 100
▁society 100
▁rules 100
▁réf 100
جز 100
▁currency 100
рах 100
▁democratic 100
ana 100
▁media 100
▁Energie 100
▁الدولي 100
▁across 100
▁государства 100
▁الاقتصادي 100
work 100
ärkte 100
▁mand 100
tivo 100
тся 100
ыта 100
▁ВВП 100
▁home 100
▁contribu 100
▁好 100
▁early 100
äf 100
▁предло 100
▁recover 100
▁femmes 100
▁Handels 100
▁har 100
▁想 100
iedri 100
▁attention 100
▁Fund 100
▁бюджет 100
qué 100
▁сделать 100
tischer 100
▁ресур 100
ork 100
▁مق 100
▁公司 100
forme 100
▁Oc 100
▁يتم 100
▁measures 100
haps 100
▁ست 100
▁podría 100
quier 100
низ 100
▁означа 100
▁мере 100
ряд 100
▁ООН 100
▁ذات 100
什么 100
ommes 100
ثال 100
▁constitu 100
▁laquelle 100
▁ок 100
▁疫 100
ape 100
zo 100
▁stud 100
▁péri 100
يو 100
ذلك 100
▁tem 100
▁Je 100
arch 100
▁Ре 100
▁dernier 100
▁هناك 100
▁Frauen 100
ino 100
liz 100
▁наде 100
▁Chinas 100
▁want 100
▁Пу 100
▁那些 100
uchen 100
▁community 100
▁2018 100
▁indem 100
▁Gre 100
▁Ter 100
uktur 100
▁Middle 100
rate 100
▁foss 100
▁dynam 100
employ 100
▁Про 100
лов 100
▁explo 100
▁partis 100
▁souten 100
▁Cela 100
ceed 100
▁Jahrzehn 100
▁предпри 100
▁lorsque 100
▁once 100
телей 100
▁依 100
gré 100
issent 100
issens 100
▁droits 100
▁противо 100
ющий 100
ثة 100
▁今 100
льную 100
▁purs 100
▁négoci 100
▁tun 100
▁Frank 100
aging 100
▁mont 100
▁Ag 100
▁exces 100
личи 100
▁balance 100
lir 100
шая 100
▁keep 100
▁arg 100
щения 100
assen 100
▁Bien 100
▁потенциа 100
▁الوقت 100
▁vér 100
▁ihnen 100
uj 100
▁emissions 100
èrent 100
▁aide 100
llung 100
▁idea 100
▁Вели 100
▁去 100
▁ан 100
▁任何 100
▁инфля 100
▁印度 100
▁Turkey 100
рак 100
▁改革 100
▁manera 100
гля 100
MI 100
ولوج 100
asi 100
▁пери 100
▁centrales 100
gel 100
▁debe 100
еты 100
ición 100
▁позволи 100
▁дви 100
▁действительно 100
ростра 100
▁cada 100
nent 100
▁عندما 100
▁culture 100
▁Xi 100
▁труд 100
лик 100
üd 100
▁方面 100
▁muchos 100
▁lower 100
tiven 100
▁consequ 100
طي 100
▁должен 100
ческое 100
▁Америки 100
▁response 100
uth 100
▁持续 100
▁获得 100
▁почти 100
▁communaut 100
▁suiv 100
▁nation 100
where 100
▁conte 100
▁Ба 100
ktion 100
▁жизни 100
лизации 100
chts 100
▁citoy 100
▁manif 100
онов 100
▁thems 100
▁themselves 100
▁Ende 100
▁长期 100
étro 100
▁здра 100
ياب 100
▁fear 100
▁Bri 100
▁avoid 100
▁investors 100
enz 100
висимо 100
ник 100
ograph 100
▁lat 100
▁jetzt 100
زب 100
▁isra 100
خم 100
ga 100
richt 100
orte 100
nen 100
▁esta 100
▁démocratie 100
▁ад 100
▁回 100
uridad 100
▁وعلى 100
яс 100
▁supply 100
▁某 100
ابة 100
кая 100
شرين 100
▁مؤ 100
▁davon 100
erves 100
عدل 100
ребу 100
▁вероят 100
▁importantes 100
воохра 100
▁Barack 100
▁she 100
▁тру 100
▁фон 100
▁oppos 100
▁enor 100
льности 100
unto 100
وط 100
ähigkeit 100
▁则 100
▁entra 100
ahmen 100
gaben 100
▁tent 100
yond 100
▁Indus 100
idence 100
anischen 100
action 100
▁deber 100
▁поддержи 100
▁pétro 100
mark 100
▁toget 100
▁mort 100
▁Als 100
▁décenn 100
eg 100
lei 100
▁根 100
▁proch 100
▁führen 100
▁الأخ 100
down 100
abilité 100
ichten 100
▁première 100
▁together 100
▁hos 100
▁同时 100
▁ahora 100
▁числе 100
дь 100
cord 100
▁test 100
▁Mittel 100
▁lassen 100
ritt 100
.5 100
▁prac 100
اقع 100
zeich 100
ками 100
▁заключа 100
lad 100
цен 100
▁gut 100
▁soutien 100
▁пример 100
▁ul 100
▁énergie 100
اية 100
▁autant 100
▁relative 100
▁1970 100
ären 100
▁member 100
▁Steuer 100
▁Party 100
▁europe 100
امية 100
▁Gem 100
▁институ 100
▁indic 100
duction 100
▁Bevölk 100
▁personas 100
▁concent 100
▁constit 100
▁الاحت 100
▁生产 100
▁лиде 100
ilt 100
▁До 100
стри 100
▁أسعار 100
ansion 100
▁لقد 100
▁Problem 100
▁nouveaux 100
ficits 100
ss 100
ям 100
▁يق 100
▁الناس 100
▁einf 100
كس 100
▁её 100
▁head 100
▁Strateg 100
eda 100
▁Sen 100
▁Бу 100
▁invol 100
▁друго 100
verse 100
▁Европе 100
leo 100
▁bed 100
▁لي 100
▁информа 100
صال 100
▁Plan 100
uels 100
▁мини 100
vere 100
▁selon 100
▁complex 100
▁regard 100
▁Frage 100
▁risques 100
▁восстанов 100
triel 100
ellschaft 100
ufact 100
▁долларов 100
pected 100
handl 100
▁addition 100
▁aurait 100
ческую 100
anza 100
صة 100
▁Trans 100
▁الديمقراط 100
vidence 100
▁широ 100
▁attend 100
▁pover 100
▁发生 100
▁bri 100
▁أنه 100
▁hasta 100
▁publi 100
▁спро 100
▁poverty 100
▁日本 100
▁rising 100
▁toutes 100
▁popular 100
▁surv 100
ружи 100
▁течение 100
▁zune 100
▁При 100
▁科 100
▁采取 100
▁расши 100
usement 100
▁ensemble 100
▁Schulden 100
▁огром 100
▁требу 100
tieg 100
issement 100
aher 100
▁œuvre 100
▁три 100
▁hoch 100
▁poll 100
▁威 100
▁甚 100
hmen 100
▁Merk 100
انون 100
▁rend 100
ara 100
▁Clint 100
enta 100
ening 100
▁crises 100
▁之间 100
▁стал 100
▁mundial 100
▁продолжа 100
▁基础 100
▁revenus 100
▁importance 100
▁21 100
тин 100
▁Auch 100
▁derar 100
bly 100
▁вз 100
quel 100
▁الاقتصادية 100
aba 100
▁vulner 100
▁À 100
▁Ko 100
▁отра 100
▁Израи 100
▁конку 100
tigt 100
▁prendre 100
ival 100
▁wealth 100
nahme 100
▁young 100
▁bur 100
▁protect 100
ël 100
▁难 100
▁Кроме 100
ashing 100
formen 100
▁pes 100
▁allerdings 100
▁уни 100
issen 100
▁режи 100
▁expect 100
▁Banken 100
▁sex 100
▁فقط 100
▁perform 100
▁目前 100
çon 100
ics 100
▁Dar 100
▁interven 100
وار 100
antwort 100
بدو 100
▁практи 100
▁challenge 100
▁起 100
▁African 100
▁constitution 100
▁بما 100
▁должна 100
▁要求 100
▁recher 100
▁Тем 100
▁财政 100
▁associ 100
▁уровня 100
лишком 100
▁extern 100
▁unique 100
▁afin 100
▁mater 100
▁aim 100
▁wid 100
▁роль 100
▁水 100
أنه 100
▁levels 100
ólar 100
▁attra 100
▁droit 100
bri 100
рую 100
▁sk 100
▁corruption 100
tish 100
▁natural 100
ätze 100
▁مس 100
еть 100
▁instru 100
ización 100
▁relati 100
▁gobiernos 100
▁cel 100
▁изменения 100
يدة 100
▁监 100
▁lut 100
by 100
▁والأ 100
▁بر 100
▁Sov 100
tively 100
ركز 100
lies 100
itäten 100
▁十 100
▁Ils 100
▁dólar 100
▁règ 100
▁кур 100
▁Восто 100
▁kein 100
▁bi 100
зация 100
ностран 100
▁continent 100
шить 100
▁Markt 100
▁ожида 100
▁巨 100
▁fight 100
bed 100
шие 100
▁ар 100
▁Some 100
▁campaign 100
▁! 100
ining 100
перь 100
▁treat 100
▁derech 100
▁ü 100
étés 100
▁здравоохра 100
▁cher 100
▁exchange 100
▁竞 100
▁欧元 100
▁Kosten 100
▁Central 100
esse 100
▁elect 100
AM 100
▁stability 100
▁rule 100
irm 100
▁processus 100
زيادة 100
▁及 100
▁超 100
▁lugar 100
▁机构 100
aría 100
tivos 100
▁report 100
icans 100
kehr 100
▁avenir 100
▁top 100
▁令 100
▁领导人 100
▁making 100
innen 100
▁perman 100
ями 100
▁день 100
▁manufact 100
фиц 100
ствий 100
äische 100
▁那么 100
poli 100
▁simply 100
ane 100
▁muy 100
▁jour 100
вест 100
▁اقتصاد 100
▁соответ 100
▁банков 100
sel 100
▁news 100
▁signif 100
тели 100
▁société 100
тельства 100
▁tanto 100
▁Premier 100
▁réduire 100
▁منذ 100
inaus 100
▁structure 100
AS 100
▁vision 100
▁always 100
▁ressources 100
▁Brit 100
ency 100
▁Более 100
▁Turqu 100
рами 100
рази 100
▁destru 100
anos 100
ختلف 100
▁viv 100
▁Israël 100
▁быстро 100
lag 100
▁fest 100
нове 100
▁روسيا 100
▁George 100
▁تس 100
▁hinaus 100
▁house 100
▁Hin 100
▁传 100
ريب 100
-2 100
étique 100
▁leader 100
▁century 100
фе 100
▁Pers 100
▁перегово 100
quality 100
▁ignor 100
▁unemploy 100
▁fundamental 100
▁moral 100
iller 100
▁famili 100
▁cin 100
▁الماض 100
▁drei 100
▁ministre 100
▁lieu 100
щение 100
▁stop 100
igung 100
▁sense 100
▁senti 100
▁أميرك 100
▁越 100
▁亿 100
دارة 100
▁зада 100
▁研究 100
пор 100
▁رئيس 100
▁значитель 100
▁ju 100
▁Ziel 100
▁النقد 100
▁faible 100
fiz 100
▁утвер 100
▁Mög 100
▁bek 100
▁процент 100
orted 100
▁transpar 100
вли 100
▁Zug 100
▁事实上 100
дук 100
▁внеш 100
▁avanc 100
▁responsables 100
▁decade 100
▁principal 100
though 100
▁Rusia 100
äß 100
нци 100
▁право 100
cept 100
llen 100
▁мировой 100
▁zusammen 100
нам 100
ución 100
▁celui 100
▁Rolle 100
èle 100
рее 100
▁dernières 100
▁ю 100
▁intro 100
▁Clinton 100
▁increased 100
▁أد 100
▁sea 100
▁Per 100
▁вто 100
غلب 100
▁insbesondere 100
▁Hamas 100
▁Banque 100
جح 100
▁存在 100
▁كثير 100
issant 100
aul 100
пло 100
▁Ли 100
ять 100
ower 100
▁aucun 100
▁believe 100
▁progres 100
edi 100
▁devraient 100
▁ty 100
▁Lebens 100
▁рыно 100
▁solutions 100
▁betra 100
▁тран 100
▁tienen 100
▁sino 100
همية 100
▁دولار 100
▁réformes 100
▁относ 100
▁weap 100
▁vra 100
▁распростра 100
▁großen 100
رية 100
enen 100
▁ارت 100
▁entsche 100
рода 100
▁Saudi 100
▁cet 100
▁self 100
▁挑 100
ремен 100
▁French 100
ientras 100
▁рабочи 100
▁environnement 100
▁иностран 100
نوك 100
الت 100
▁May 100
▁Kong 100
▁造 100
bau 100
wär 100
▁перио 100
▁financiers 100
krise 100
▁به 100
قيقة 100
▁بها 100
▁actions 100
▁Argent 100
▁البي 100
▁президента 100
▁2006 100
способ 100
▁ci 100
▁debate 100
ound 100
▁agenda 100
▁moder 100
▁动 100
▁Ни 100
▁结果 100
ausforder 100
▁Vereinigten 100
▁qual 100
utet 100
▁durante 100
▁schn 100
▁dispos 100
aise 100
▁minor 100
▁nuest 100
icile 100
▁услу 100
▁sembl 100
тем 100
▁sens 100
ête 100
▁Tatsächlich 100
мыш 100
licht 100
▁sure 100
fäl 100
▁BIP 100
▁новых 100
▁ingres 100
▁参 100
▁нау 100
▁фун 100
▁party 100
▁наибо 100
▁record 100
▁Su 100
▁Car 100
▁Zuk 100
▁vote 100
▁times 100
▁intérêts 100
▁occup 100
▁часто 100
▁aid 100
▁zunehm 100
▁direction 100
▁Egyp 100
▁один 100
▁Weise 100
▁optim 100
▁作为 100
▁citoyens 100
▁empresas 100
▁UK 100
izing 100
rim 100
▁公共 100
هل 100
▁aj 100
▁dimin 100
▁اليوم 100
▁Em 100
▁реше 100
▁matière 100
美元 100
azo 100
▁subst 100
▁Roy 100
▁paix 100
oph 100
▁год 100
ثمار 100
▁intervention 100
▁يح 100
lage 100
стей 100
▁staat 100
مان 100
▁minim 100
طر 100
وسط 100
▁слишком 100
▁улуч 100
▁الشركات 100
▁политика 100
▁deliver 100
oso 100
ander 100
▁совер 100
zw 100
▁cual 100
▁becom 100
▁商 100
▁继 100
maß 100
sh 100
ático 100
▁更加 100
▁Stre 100
▁fix 100
inder 100
шта 100
ورو 100
aster 100
▁小 100
▁abandon 100
▁ينب 100
aces 100
▁学 100
ming 100
▁FMI 100
▁quelques 100
▁Konf 100
▁aufgrund 100
▁يد 100
▁amen 100
▁riches 100
ount 100
▁возможность 100
▁effect 100
▁Gesundheits 100
▁corre 100
▁联合 100
▁große 100
措施 100
▁conver 100
▁внутрен 100
▁niedri 100
افة 100
▁一种 100
▁wel 100
asser 100
мати 100
▁убе 100
той 100
шен 100
▁existen 100
ennes 100
▁hor 100
▁Krem 100
нуть 100
▁acuer 100
▁运 100
▁déclar 100
кий 100
▁Мо 100
ليم 100
▁Укра 100
▁areas 100
▁2003 100
▁expand 100
▁稳 100
▁一直 100
▁настоя 100
oles 100
▁wirtschaftliche 100
ducation 100
agen 100
▁сте 100
▁erre 100
▁régime 100
国家 100
▁القد 100
umption 100
▁الحكومة 100
▁celle 100
▁argument 100
дели 100
▁based 100
▁minister 100
▁Fall 100
▁full 100
▁sistema 100
▁crédit 100
ientos 100
▁甚至 100
▁负 100
▁York 100
▁أيضاً 100
leist 100
▁jüng 100
▁конце 100
▁san 100
TON 100
länder 100
▁кризис 100
temps 100
▁incen 100
▁эта 100
▁Herausforder 100
▁apoy 100
▁indé 100
▁三 100
▁schon 100
émie 100
цу 100
▁состоя 100
mut 100
▁最近 100
▁ور 100
▁عل 100
▁expansion 100
ienne 100
ox 100
▁sing 100
tigkeit 100
▁British 100
▁dépenses 100
▁تب 100
time 100
ians 100
▁EE 100
▁кр 100
▁mac 100
punkt 100
▁true 100
▁меди 100
▁конфлик 100
ampf 100
вается 100
▁policymakers 100
жить 100
▁пло 100
▁Syria 100
▁把 100
▁loss 100
▁وج 100
ex 100
▁prosper 100
side 100
ding 100
гно 100
▁Asie 100
▁избира 100
خدام 100
▁Art 100
▁entire 100
érieur 100
▁Besch 100
▁maintain 100
▁comun 100
▁nuev 100
▁chaque 100
▁пока 100
▁programme 100
▁приме 100
صف 100
hunder 100
▁existe 100
政府 100
▁achieve 100
▁nucléaire 100
вета 100
▁Украи 100
тами 100
ieron 100
▁уровень 100
▁следует 100
▁Str 100
▁люди 100
▁gest 100
▁extrem 100
▁advanced 100
▁ampli 100
структу 100
▁Of 100
▁результате 100
ält 100
ief 100
▁التن 100
▁internationalen 100
leicht 100
▁основа 100
▁выз 100
рует 100
▁именно 100
ña 100
статочно 100
▁لإ 100
▁Paris 100
▁King 100
▁comment 100
▁doch 100
خفض 100
umen 100
▁وكان 100
acionales 100
рд 100
äm 100
ذي 100
▁Americans 100
ktor 100
الات 100
▁السي 100
كة 100
was 100
斯坦 100
▁reconn 100
▁vue 100
gehen 100
komm 100
лении 100
wirkungen 100
▁качестве 100
▁Möglichkeit 100
ony 100
GE 100
êmes 100
▁investissement 100
ij 100
▁تحت 100
ato 100
▁ak 100
ceso 100
riff 100
▁deben 100
▁冲 100
schied 100
▁Bra 100
▁此外 100
wan 100
▁стране 100
▁而且 100
фере 100
▁else 100
▁savoir 100
aken 100
▁europäischen 100
▁долгосро 100
licherweise 100
ita 100
▁不会 100
▁industrial 100
tica 100
▁Hong 100
▁zwar 100
▁stärk 100
▁projec 100
▁mercados 100
▁air 100
▁tom 100
▁cooperation 100
▁opportunity 100
uros 100
нес 100
▁doute 100
▁يُ 100
bild 100
▁dépend 100
▁surpris 100
▁силы 100
▁保护 100
▁новые 100
▁inqu 100
жной 100
صلاح 100
▁своего 100
inal 100
держи 100
▁näch 100
▁habit 100
▁2004 100
ссии 100
▁перед 100
▁Kredit 100
▁mercado 100
▁помощи 100
▁augmentation 100
▁inner 100
ahrscheinlich 100
▁sociétés 100
▁Po 100
▁пово 100
▁ينبغي 100
▁suggest 100
лет 100
▁cadre 100
▁death 100
mbre 100
▁despite 100
bern 100
▁perd 100
▁sido 100
▁eigenen 100
▁developed 100
▁всё 100
оне 100
▁доступ 100
▁Accord 100
▁造成 100
نوات 100
ющего 100
vereign 100
RID 100
▁opinion 100
▁奥 100
▁Bürger 100
▁代 100
▁неу 100
▁fig 100
▁fisc 100
ارية 100
▁才 100
enten 100
▁Federal 100
▁push 100
ruppen 100
▁effects 100
▁leading 100
▁管 100
roll 100
стин 100
atri 100
▁Кон 100
▁expl 100
▁fonds 100
▁fourn 100
▁Sicherheit 100
ecn 100
▁carb 100
▁deren 100
▁Zukunft 100
führt 100
▁Demokratie 100
▁working 100
▁militaire 100
▁élections 100
▁Öl 100
тери 100
▁abord 100
▁像 100
leman 100
▁chance 100
benso 100
▁компании 100
▁maintenant 100
▁capacité 100
ume 100
▁مد 100
▁Washing 100
▁seront 100
▁spé 100
▁Institution 100
▁伊朗 100
▁себе 100
▁复 100
car 100
▁То 100
▁depend 100
▁проек 100
▁администра 100
▁seek 100
▁العم 100
▁restric 100
▁الز 100
dam 100
▁حق 100
▁lleg 100
▁разрабо 100
▁действия 100
▁cut 100
▁Muslim 100
uesto 100
وسع 100
▁合作 100
▁Weg 100
▁Zahl 100
цин 100
▁ана 100
▁серьез 100
▁font 100
▁obten 100
gency 100
▁поэтому 100
▁破 100
▁propre 100
▁improve 100
▁groups 100
▁Мы 100
amt 100
▁ouver 100
▁said 100
▁дене 100
▁Lös 100
▁миллиар 100
▁家 100
ichtlich 100
мышлен 100
сторон 100
▁выбро 100
▁conséquences 100
гии 100
▁frü 100
▁legal 100
▁einige 100
tiger 100
▁tecn 100
▁difficile 100
▁放 100
▁Inf 100
▁Washington 100
▁гаран 100
▁человека 100
هور 100
aisse 100
▁принци 100
▁water 100
▁нас 100
ссий 100
éré 100
▁union 100
▁последствия 100
geme 100
щую 100
▁资本 100
▁reb 100
▁term 100
▁заме 100
▁source 100
zy 100
▁hausse 100
▁وهذا 100
▁soient 100
▁court 100
▁Such 100
terior 100
ؤدي 100
▁Afrik 100
воль 100
▁call 100
▁demonst 100
▁hope 100
▁larg 100
▁医 100
ands 100
▁形 100
ürlich 100
▁changes 100
ходит 100
▁consequences 100
rimin 100
▁Durch 100
ole 100
▁ша 100
▁beispiel 100
▁сообще 100
▁adopt 100
▁called 100
usti 100
▁Ser 100
▁five 100
▁début 100
▁Council 100
▁أقل 100
▁scho 100
хва 100
andis 100
▁получа 100
▁exer 100
حق 100
ened 100
▁2021 100
cos 100
fluss 100
▁Merkel 100
▁Когда 100
OND 100
▁montr 100
ieten 100
▁بالت 100
ilien 100
▁Они 100
▁design 100
▁LOND 100
▁挑战 100
▁面临 100
▁económico 100
▁سبيل 100
zi 100
мир 100
▁strategic 100
▁geht 100
▁guerra 100
▁Amé 100
▁deven 100
▁Leben 100
系统 100
▁pressure 100
▁consens 100
aupt 100
orter 100
نك 100
▁objectif 100
▁类 100
▁слу 100
▁чу 100
edom 100
▁bew 100
▁биз 100
▁побе 100
▁außer 100
▁learn 100
▁langfris 100
▁لأن 100
▁الوط 100
▁appear 100
▁porque 100
лем 100
▁Many 100
▁steht 100
issenschaft 100
▁المناخ 100
▁Например 100
▁المحلي 100
▁Develop 100
▁некоторые 100
indest 100
▁erhö 100
▁accès 100
креп 100
▁Соеди 100
urb 100
▁months 100
▁internacional 100
▁Zentral 100
يمة 100
▁stratégie 100
▁необходимы 100
veur 100
вом 100
▁过去 100
né 100
▁pap 100
▁建立 100
dra 100
طيع 100
▁prim 100
▁macro 100
▁Auswirkungen 100
▁точ 100
▁unemployment 100
▁until 100
▁проблема 100
طاع 100
▁таким 100
▁紧 100
▁马 100
▁tip 100
▁sovereign 100
sweise 100
▁Invest 100
chan 100
▁Conse 100
▁kurz 100
▁أف 100
▁أش 100
▁Geg 100
лле 100
▁Austr 100
▁después 100
aume 100
▁ways 100
ativen 100
анк 100
▁counter 100
سات 100
▁Net 100
▁sei 100
▁mismo 100
▁представля 100
utes 100
▁faci 100
▁环 100
▁ciud 100
▁erforder 100
▁оружи 100
▁الأول 100
▁old 100
▁Ke 100
▁الحرب 100
▁class 100
cas 100
atory 100
▁menace 100
esen 100
ove 100
ortion 100
▁subsid 100
▁حول 100
▁具 100
▁будуще 100
брита 100
ствуют 100
▁亚 100
▁стрем 100
▁flo 100
▁观 100
▁Probleme 100
▁investig 100
▁puissance 100
▁万 100
▁特别 100
▁الطاقة 100
▁identif 100
▁enfants 100
▁Op 100
▁несколько 100
mi 100
▁Ide 100
▁imper 100
nehmer 100
▁ту 100
▁права 100
ases 100
▁jap 100
▁担 100
чет 100
gos 100
стан 100
▁чле 100
▁组织 100
▁Велико 100
alle 100
unch 100
igrants 100
itarian 100
▁Ми 100
рукту 100
▁esper 100
▁конкурен 100
uve 100
ctors 100
▁Jahrhunder 100
вен 100
▁如此 100
волю 100
▁employment 100
▁Tre 100
▁refus 100
▁liquid 100
▁glau 100
▁экспор 100
▁перспек 100
▁扩 100
▁points 100
▁económica 100
▁déficit 100
▁отношения 100
▁条 100
ls 100
▁á 100
▁报 100
ledge 100
▁последние 100
▁sustainable 100
▁ähn 100
▁faveur 100
▁frag 100
IS 100
▁означает 100
▁Gren 100
▁partners 100
▁فر 100
▁Великобрита 100
▁six 100
▁Para 100
▁الاجتما 100
▁mieux 100
ER 100
▁知 100
▁ين 100
▁typ 100
▁alone 100
▁Greece 100
▁lange 100
▁позволя 100
▁personal 100
▁Lat 100
ín 100
▁الحد 100
abhäng 100
▁requires 100
حية 100
urance 100
лением 100
▁понима 100
▁Tro 100
▁done 100
▁如何 100
طلب 100
▁осу 100
▁Lage 100
▁observ 100
▁500 100
▁remp 100
▁опас 100
▁ло 100
ument 100
▁важно 100
ES 100
enh 100
موعة 100
▁mut 100
▁Германии 100
▁большо 100
▁presidente 100
▁hätte 100
pects 100
емых 100
▁Что 100
▁意味 100
▁попы 100
▁clos 100
▁独 100
fang 100
▁siècle 100
▁approche 100
▁такой 100
liament 100
▁产生 100
▁bad 100
▁ben 100
▁另 100
▁Politiker 100
▁Lond 100
▁legitim 100
nes 100
rar 100
▁بأن 100
▁非洲 100
▁liegt 100
▁东 100
ived 100
▁дет 100
▁出现 100
cles 100
▁officials 100
▁late 100
هاية 100
▁обы 100
▁seguridad 100
▁行动 100
▁срав 100
heb 100
даря 100
cès 100
▁stehen 100
▁gain 100
frage 100
▁ici 100
▁histoire 100
там 100
▁стро 100
▁收入 100
quoi 100
▁created 100
tellt 100
▁начи 100
▁einmal 100
itter 100
▁Britain 100
glied 100
▁ethn 100
▁значительно 100
▁稳定 100
▁Gemein 100
▁beyond 100
▁ду 100
واقع 100
▁programs 100
▁shar 100
él 100
▁akt 100
änger 100
▁ون 100
▁ese 100
وح 100
▁Kim 100
وائ 100
ظمة 100
▁argent 100
▁структу 100
▁比如 100
iente 100
▁beiden 100
▁又 100
▁tw 100
▁السياسة 100
ян 100
sif 100
▁同样 100
▁历 100
利亚 100
▁libre 100
▁ON 100
bilität 100
▁valeur 100
▁тогда 100
▁国内 100
▁flex 100
▁Трамп 100
konom 100
▁аль 100
▁глу 100
▁2050 100
▁станов 100
atos 100
alisierung 100
▁имеет 100
▁политику 100
عر 100
▁budgétaire 100
▁النات 100
▁taxes 100
▁whose 100
▁сотрудниче 100
utzen 100
▁годы 100
▁الواقع 100
▁hace 100
▁продук 100
based 100
▁final 100
▁voie 100
▁insta 100
▁决定 100
rient 100
▁проис 100
▁determin 100
ugg 100
▁усили 100
▁打 100
▁Bezie 100
▁réalis 100
▁utilis 100
▁einfach 100
▁uti 100
uesta 100
▁líder 100
▁malad 100
▁verst 100
▁تك 100
▁komm 100
▁Präsidenten 100
loc 100
▁جم 100
▁commerce 100
ublik 100
▁sû 100
▁Cov 100
▁mise 100
▁largo 100
جمالي 100
▁goods 100
▁وهي 100
▁بشأن 100
▁проблем 100
lossen 100
▁necessary 100
▁нор 100
▁mach 100
▁deuda 100
▁innerhalb 100
ateur 100
▁contrôle 100
نى 100
▁ple 100
▁Bild 100
▁kle 100
ritte 100
▁Lors 100
istent 100
lands 100
acidad 100
ING 100
ène 100
اما 100
▁rien 100
▁average 100
زيز 100
▁严重 100
مب 100
▁威胁 100
▁soon 100
▁часть 100
▁pauvres 100
trag 100
▁konn 100
▁السياسية 100
▁отношении 100
зяй 100
▁wr 100
▁بأ 100
▁占 100
тивы 100
чным 100
▁грани 100
ائدة 100
emü 100
▁II 100
▁ضد 100
itar 100
ously 100
▁sett 100
achs 100
▁Бе 100
выми 100
▁缺 100
服务 100
▁kind 100
▁assets 100
▁type 100
▁jeunes 100
▁tit 100
▁стоимо 100
▁données 100
▁interes 100
rich 100
▁rapidement 100
TAN 100
▁措施 100
▁أكبر 100
▁ordre 100
▁المخ 100
▁stock 100
▁بالن 100
▁лучше 100
▁мл 100
▁mil 100
▁elimin 100
▁降 100
▁pand 100
▁verfü 100
▁manifest 100
▁populations 100
шим 100
cuen 100
▁largely 100
▁capacity 100
▁Eng 100
▁refuge 100
▁vielen 100
▁Jan 100
▁cra 100
▁Оба 100
سين 100
▁Lik 100
falls 100
▁unsere 100
▁plazo 100
▁Revolution 100
▁ради 100
▁Ergeb 100
▁crucial 100
▁дефиц 100
▁fondament 100
▁multip 100
▁Kons 100
▁alternative 100
reif 100
люда 100
na 100
▁Covid 100
▁Poli 100
▁تُ 100
wers 100
▁крити 100
ancer 100
▁Guer 100
▁целью 100
▁دون 100
▁证 100
ié 100
тие 100
▁Tal 100
bewer 100
gentes 100
▁avons 100
▁mayoría 100
▁largest 100
▁weapons 100
▁powerful 100
ature 100
bol 100
тар 100
ennent 100
▁trib 100
▁Krank 100
▁etwas 100
étaires 100
نظيم 100
▁أحد 100
tigung 100
▁industry 100
▁مر 100
▁provo 100
▁времени 100
▁Klimawand 100
▁большинство 100
ху 100
▁意味着 100
▁наб 100
▁Между 100
▁ach 100
▁verl 100
▁直 100
юза 100
▁path 100
▁imag 100
▁继续 100
бера 100
▁day 100
льными 100
▁Comme 100
wachstum 100
▁Organisation 100
ums 100
▁infec 100
▁المثال 100
▁Bereich 100
▁discus 100
örder 100
▁النظام 100
▁Now 100
▁Tai 100
▁asi 100
britann 100
▁拥 100
▁约 100
▁партии 100
▁several 100
спубли 100
▁Septe 100
▁wenig 100
▁专 100
▁Royaume 100
انات 100
▁predic 100
мина 100
им 100
▁failed 100
imir 100
▁Selbst 100
▁对于 100
▁克 100
ضخم 100
onen 100
зад 100
urity 100
▁profession 100
льту 100
pendant 100
يران 100
▁nar 100
▁свой 100
lément 100
▁façon 100
▁away 100
政策 100
▁mess 100
▁Sicherheits 100
▁部 100
▁hy 100
▁productivity 100
▁效 100
▁تص 100
▁всем 100
▁boost 100
▁moyen 100
▁produits 100
از 100
جر 100
▁Шта 100
here 100
▁recovery 100
krieg 100
▁Italy 100
▁lives 100
▁الأكثر 100
央行 100
мом 100
▁дея 100
▁urban 100
▁September 100
ano 100
льном 100
▁меся 100
▁Entscheidung 100
▁вопрос 100
▁Soviet 100
▁refer 100
▁成功 100
▁أجل 100
ladimir 100
▁sociales 100
▁taken 100
▁bringen 100
▁eu 100
▁Während 100
▁даль 100
▁Bet 100
▁Großbritann 100
به 100
▁outre 100
▁维 100
▁集 100
▁назад 100
IC 100
▁maje 100
alog 100
ito 100
▁терро 100
▁incluso 100
▁catastrop 100
▁live 100
▁заключается 100
▁idée 100
etzung 100
▁могли 100
▁compé 100
▁Niger 100
▁اللا 100
▁scheint 100
باد 100
▁Дж 100
▁Dav 100
▁وخ 100
▁Prime 100
▁Obwohl 100
ño 100
iere 100
ilfe 100
▁américains 100
اك 100
стави 100
▁ответствен 100
▁orient 100
kn 100
ادي 100
▁attemp 100
▁How 100
igual 100
▁которую 100
▁Frankreich 100
reci 100
▁فت 100
▁战略 100
▁quick 100
▁Can 100
▁particulier 100
▁politicians 100
▁brut 100
▁стали 100
▁respond 100
▁impossible 100
ويل 100
▁西方 100
▁quo 100
ona 100
▁المق 100
▁Indien 100
▁наиболее 100
▁معدل 100
▁factor 100
▁poursu 100
▁привле 100
äs 100
ody 100
▁Was 100
▁Economic 100
تيجة 100
▁ern 100
ragen 100
▁表明 100
▁попу 100
▁household 100
▁science 100
▁宣 100
▁24 100
▁税 100
▁ны 100
▁así 100
▁legisl 100
▁其中 100
▁什么 100
▁Har 100
▁تلك 100
▁EC 100
▁土 100
ители 100
▁nie 100
▁accomp 100
▁Today 100
▁deutlich 100
▁劳 100
▁ير 100
▁emploi 100
راتيج 100
ories 100
▁quand 100
▁вне 100
▁avaient 100
▁bancos 100
▁gering 100
▁历史 100
▁benefit 100
kte 100
angen 100
▁乌 100
▁single 100
ored 100
tiva 100
▁arab 100
▁проте 100
▁ausl 100
ua 100
mens 100
▁能力 100
▁annual 100
▁développ 100
▁durable 100
هود 100
▁credi 100
▁Macron 100
▁промышлен 100
▁dernière 100
цо 100
▁pauvre 100
▁называ 100
ativa 100
▁заня 100
▁garan 100
▁得到 100
▁dólares 100
▁état 100
андеми 100
▁objectifs 100
▁erklär 100
▁Chr 100
▁precios 100
▁positive 100
▁weitere 100
▁inequality 100
▁двух 100
▁aucune 100
▁voters 100
▁Desp 100
ligence 100
▁战争 100
▁здо 100
▁источ 100
▁pan 100
▁pati 100
▁période 100
ning 100
ali 100
▁Fortsch 100
▁darin 100
grès 100
▁stabilité 100
اريخ 100
iones 100
▁makes 100
▁confiance 100
▁الجم 100
▁statt 100
▁série 100
▁不仅 100
titude 100
▁Milit 100
▁majority 100
alités 100
▁регули 100
inning 100
▁занима 100
ئية 100
▁感 100
лии 100
▁После 100
ريك 100
▁Mor 100
▁explic 100
▁facilit 100
▁能源 100
▁北 100
▁环境 100
▁экономической 100
hab 100
бре 100
بات 100
▁Sim 100
▁ومع 100
тах 100
▁وح 100
▁compris 100
bersch 100
▁let 100
▁пози 100
▁法国 100
▁Азии 100
▁Inflation 100
▁lost 100
пли 100
▁mass 100
▁rein 100
▁للأ 100
▁öffentlichen 100
امة 100
▁System 100
▁passé 100
▁erreichen 100
▁例 100
▁funds 100
itement 100
outine 100
▁baisse 100
▁organis 100
times 100
▁反对 100
جع 100
▁排 100
▁clar 100
▁ника 100
äst 100
▁schwer 100
قرار 100
▁Program 100
EL 100
▁交 100
▁pendant 100
Uni 100
нитель 100
▁принима 100
zeug 100
▁Corée 100
▁höher 100
▁инвестиций 100
net 100
▁hacia 100
▁financement 100
wide 100
▁environmental 100
ield 100
iemb 100
▁relationship 100
▁似 100
ortunately 100
▁engagement 100
▁调 100
чей 100
▁jud 100
▁عليها 100
cto 100
▁成员 100
ods 100
▁mism 100
чного 100
▁behav 100
дить 100
اعتبار 100
▁éviter 100
воз 100
خدم 100
▁أول 100
▁responsi 100
كنولوج 100
▁Wachstums 100
▁otras 100
▁здравоохранения 100
uter 100
▁теперь 100
▁demokra 100
▁несмотря 100
igne 100
▁Dis 100
cemment 100
▁свобод 100
راف 100
▁verbess 100
ведли 100
▁perhaps 100
EN 100
▁Bel 100
▁това 100
▁schnell 100
▁rene 100
▁المزيد 100
▁nearly 100
uper 100
brauch 100
▁trillion 100
▁successful 100
▁أث 100
▁miemb 100
ضا 100
▁First 100
▁исклю 100
رار 100
▁实施 100
▁希望 100
▁deficit 100
▁лег 100
▁dessen 100
ويات 100
ilities 100
▁service 100
▁éducation 100
aup 100
пада 100
▁émissions 100
руют 100
érable 100
▁حك 100
▁tan 100
▁考 100
uras 100
бра 100
▁以色 100
▁forma 100
▁médi 100
▁capitaux 100
ormais 100
щий 100
▁ideolog 100
▁acqu 100
теля 100
▁以色列 100
▁Wert 100
وقع 100
▁administra 100
امج 100
▁البنوك 100
▁пи 100
▁العق 100
▁won 100
▁Rahmen 100
▁человек 100
▁musul 100
ору 100
▁Regierungs 100
tro 100
cide 100
▁Fran 100
annt 100
рит 100
▁hoy 100
▁актив 100
▁surve 100
▁уда 100
▁شي 100
мень 100
▁моло 100
ieden 100
▁réglement 100
▁عم 100
▁governance 100
▁承诺 100
olid 100
▁произо 100
▁смер 100
▁amerikanischen 100
хода 100
▁behind 100
hem 100
ilen 100
▁pouv 100
▁près 100
ocratic 100
▁电 100
▁coûts 100
▁neigh 100
لية 100
▁تحد 100
▁المؤس 100
▁提高 100
▁آخر 100
▁flow 100
▁chose 100
▁令人 100
▁составля 100
▁absol 100
▁Lo 100
▁miss 100
اسة 100
alten 100
AMB 100
▁escal 100
▁ха 100
▁détermin 100
▁самым 100
▁revolution 100
▁probablement 100
räfte 100
▁cul 100
▁actuel 100
▁increasing 100
▁活 100
bert 100
▁المؤ 100
▁ability 100
sych 100
▁emplois 100
licy 100
▁stellen 100
▁近 100
▁私 100
▁Braz 100
▁shift 100
▁нынеш 100
▁elections 100
▁weiterhin 100
▁جديدة 100
▁прогре 100
▁模 100
▁sicher 100
▁们 100
▁深 100
▁Bro 100
ropri 100
лин 100
▁只有 100
▁salud 100
▁riesgo 100
▁forte 100
▁absen 100
▁obligations 100
▁progrès 100
▁تحقيق 100
édi 100
▁problema 100
▁Development 100
UU 100
控制 100
▁sau 100
▁moyens 100
вших 100
▁efficace 100
gend 100
▁وقت 100
▁Zu 100
▁最终 100
▁sociale 100
жем 100
▁协议 100
вала 100
▁sud 100
▁present 100
بط 100
▁tel 100
▁Он 100
▁obje 100
▁ersten 100
اليف 100
anco 100
▁investments 100
▁investisseurs 100
ريط 100
▁efect 100
stre 100
acter 100
▁seen 100
▁close 100
sk 100
ollen 100
▁began 100
вок 100
▁cases 100
▁nécessaires 100
▁关系 100
гети 100
▁меры 100
▁tempor 100
▁使用 100
▁يعني 100
▁充 100
▁الماضي 100
▁二 100
▁处 100
▁似乎 100
▁احت 100
▁والواقع 100
▁expected 100
▁عالم 100
▁Gu 100
▁tandis 100
▁Austral 100
▁klar 100
▁influen 100
عيد 100
▁bénéfici 100
▁فض 100
▁仍然 100
либо 100
▁Geschichte 100
▁сла 100
▁成本 100
▁commercial 100
ваются 100
▁termes 100
▁الوا 100
▁bereit 100
нему 100
▁absence 100
يت 100
▁би 100
▁лидеры 100
▁Eurozone 100
طاق 100
érité 100
▁الممكن 100
▁والح 100
▁الغرب 100
▁однако 100
▁Ré 100
▁donné 100
▁المالي 100
▁Poutine 100
vitable 100
▁союз 100
ган 100
▁أيضا 100
▁Gefahr 100
zar 100
▁coalition 100
▁economías 100
▁drug 100
ländern 100
▁整 100
▁利益 100
весто 100
▁مختلف 100
▁行为 100
fung 100
▁evidence 100
▁2002 100
aw 100
jets 100
▁经济体 100
▁поводу 100
▁миллионов 100
▁капитала 100
▁Bevölkerung 100
▁истори 100
▁уровне 100
▁области 100
تمع 100
unque 100
▁véritable 100
▁justif 100
▁proper 100
يه 100
学家 100
▁拥有 100
▁tour 100
▁CAMB 100
iés 100
▁тому 100
▁Kinder 100
RIDGE 100
▁масшта 100
▁竞争 100
▁zweit 100
емые 100
lament 100
▁имеют 100
ften 100
▁Gaza 100
▁CAMBRIDGE 100
▁развивающихся 100
▁proté 100
▁выпол 100
▁finanziel 100
дца 100
▁doing 100
▁decline 100
▁désormais 100
▁如今 100
▁Боль 100
تق 100
▁became 100
▁stri 100
enez 100
шую 100
ческими 100
▁immedi 100
▁بالفعل 100
▁السياسات 100
▁期 100
▁креди 100
▁下降 100
▁failure 100
▁acuerdo 100
▁pétrole 100
▁longtemps 100
▁الخارج 100
▁选择 100
▁freedom 100
oses 100
чему 100
iff 100
▁世纪 100
▁later 100
▁anim 100
اطر 100
ought 100
▁denn 100
▁комп 100
▁расс 100
▁plans 100
▁الأزمة 100
▁accept 100
▁gefähr 100
▁Terror 100
явля 100
arias 100
▁hier 100
▁以来 100
▁服务 100
▁Mehr 100
▁вза 100
тых 100
▁having 100
▁aún 100
твра 100
▁dür 100
chter 100
king 100
ملك 100
zess 100
inden 100
istic 100
▁verhin 100
▁bleiben 100
▁critical 100
▁consumption 100
▁revenu 100
▁Given 100
▁changements 100
▁dif 100
▁along 100
oman 100
▁réponse 100
раструкту 100
▁beispielsweise 100
▁22 100
▁القرن 100
▁Bemü 100
▁еврозо 100
▁Так 100
▁требо 100
▁récemment 100
▁entscheid 100
▁террори 100
edeut 100
بت 100
▁fair 100
schaften 100
▁initiatives 100
▁augmenter 100
▁quien 100
▁одной 100
▁systèmes 100
▁1989 100
▁européens 100
▁压 100
▁сель 100
▁использу 100
▁لها 100
uff 100
▁ففي 100
▁Cour 100
▁compens 100
▁opportunities 100
▁设 100
▁教育 100
▁give 100
▁الحكومات 100
▁marg 100
وء 100
صالح 100
▁conven 100
▁raz 100
▁nuevo 100
union 100
▁seule 100
ينا 100
▁منطقة 100
▁initiative 100
▁дав 100
▁elector 100
▁части 100
▁sources 100
▁offen 100
kal 100
nam 100
ocks 100
▁спе 100
upe 100
▁pandémie 100
▁намного 100
▁Amerikas 100
▁اليورو 100
▁Kingdom 100
▁возможности 100
▁virt 100
تع 100
шин 100
▁الناتج 100
زام 100
EC 100
▁Frei 100
▁values 100
▁限 100
▁فع 100
ctive 100
▁étant 100
ague 100
▁empê 100
ked 100
شا 100
▁система 100
▁exports 100
кло 100
anische 100
▁Wohl 100
▁والع 100
коло 100
▁break 100
▁сторон 100
▁пос 100
▁控制 100
▁Même 100
▁Staat 100
▁собой 100
▁وق 100
▁Geb 100
▁centrale 100
▁hatten 100
▁living 100
▁الأميركية 100
▁sowohl 100
▁insp 100
▁един 100
▁через 100
tab 100
▁ولي 100
▁inversión 100
жений 100
▁highly 100
▁nachhal 100
▁пандеми 100
▁west 100
▁أميركا 100
abilidad 100
▁Amerika 100
▁不同 100
кими 100
▁pur 100
▁общества 100
▁gestion 100
uellen 100
▁تف 100
▁объяс 100
рот 100
▁agit 100
glie 100
teid 100
▁mob 100
▁предотвра 100
▁消费 100
ماً 100
صبحت 100
▁والذي 100
▁gens 100
▁BR 100
▁увеличи 100
اقت 100
iß 100
fall 100
áp 100
▁qué 100
▁lutte 100
ued 100
ills 100
ourcen 100
ordan 100
▁Haushalts 100
▁ep 100
▁Für 100
▁关键 100
▁减少 100
▁palestin 100
mon 100
igent 100
▁comes 100
лк 100
▁guar 100
▁previous 100
ôm 100
ielen 100
▁получ 100
▁вопроса 100
▁précéd 100
rá 100
▁инфраструкту 100
щей 100
мест 100
aving 100
atic 100
▁россий 100
скими 100
▁культу 100
unde 100
وقف 100
▁политической 100
بق 100
ваний 100
▁virus 100
▁选举 100
▁dang 100
▁General 100
▁文 100
bruch 100
▁consensus 100
▁恐 100
▁人口 100
▁巨大 100
érieure 100
▁qualif 100
▁° 100
чном 100
▁inég 100
cional 100
ösen 100
▁segu 100
▁using 100
мпа 100
head 100
▁тради 100
▁Хотя 100
ritten 100
asch 100
▁кред 100
матри 100
▁owing 100
ürz 100
▁experience 100
▁》 100
erta 100
▁third 100
▁《 100
▁ги 100
▁daher 100
▁estos 100
äris 100
ТО 100
inent 100
▁capacidad 100
dical 100
▁بالم 100
▁multilateral 100
rence 100
▁enter 100
▁spread 100
▁实际 100
▁mens 100
كد 100
▁عدد 100
▁Security 100
▁لح 100
iew 100
▁парт 100
▁ground 100
▁goal 100
▁激 100
book 100
érence 100
▁官 100
▁esa 100
▁Comp 100
▁bio 100
▁puiss 100
eron 100
aden 100
▁justice 100
▁propres 100
▁قاد 100
▁立 100
zip 100
▁din 100
▁联合国 100
▁Коре 100
▁vielleicht 100
тори 100
▁bonne 100
▁догово 100
▁choix 100
èce 100
ؤول 100
iedad 100
eless 100
▁schle 100
▁actifs 100
лизо 100
▁wohl 100
▁отсут 100
imm 100
▁powers 100
▁谈 100
▁defin 100
▁пыта 100
▁presidential 100
any 100
hält 100
ured 100
▁occasion 100
ancia 100
▁én 100
▁ents 100
▁التد 100
▁respec 100
▁эту 100
▁grund 100
▁移 100
▁Kh 100
▁Ainsi 100
illed 100
▁répond 100
▁постоя 100
▁Instead 100
▁pauvreté 100
▁standards 100
▁Institutionen 100
▁النو 100
lying 100
▁беспо 100
▁Zentralbank 100
▁并且 100
▁受到 100
▁эко 100
▁créer 100
▁target 100
bare 100
▁fran 100
▁either 100
▁nothing 100
ёз 100
▁Elle 100
▁Gleich 100
▁193 100
acité 100
atisf 100
▁geben 100
▁дер 100
▁According 100
angs 100
▁Inform 100
fore 100
force 100
▁Россия 100
▁consommation 100
▁esto 100
ющее 100
▁Parti 100
▁этим 100
▁parten 100
▁ext 100
▁nombreuses 100
mers 100
▁среди 100
▁produce 100
▁الجن 100
ettbewer 100
▁инвесто 100
▁пользу 100
▁Asi 100
▁telle 100
▁решение 100
غل 100
▁价格 100
▁Пре 100
▁apro 100
▁Bl 100
▁chr 100
▁改变 100
▁Тур 100
Orient 100
même 100
▁tir 100
▁внимание 100
▁暴 100
يب 100
▁voir 100
▁сро 100
يط 100
nelle 100
▁Asian 100
▁account 100
▁chinesischen 100
мет 100
▁35 100
▁Kremlin 100
▁taking 100
▁手 100
▁Beispiel 100
▁кан 100
▁机会 100
▁циф 100
▁tats 100
▁美元 100
▁офи 100
▁empr 100
▁анти 100
▁为了 100
lassen 100
▁decis 100
▁Reserve 100
sich 100
пора 100
▁политических 100
▁oft 100
imen 100
welt 100
▁frame 100
ставить 100
▁随着 100
ществ 100
▁Tout 100
▁生活 100
▁avail 100
рение 100
▁оцен 100
▁fronti 100
ющиеся 100
▁достиг 100
▁willing 100
▁read 100
▁установ 100
вший 100
дова 100
▁dej 100
geh 100
▁إعادة 100
▁strugg 100
▁Infrastr 100
▁medi 100
▁recherche 100
нец 100
▁الأج 100
▁tendance 100
▁方式 100
▁compromis 100
▁不能 100
تخابات 100
▁المال 100
▁Europäischen 100
▁جانب 100
ething 100
▁банки 100
▁nég 100
▁элек 100
▁matter 100
▁pasado 100
▁оши 100
▁资金 100
▁dispar 100
▁souver 100
▁antes 100
▁农 100
▁Moy 100
▁数据 100
▁клю 100
▁obsta 100
▁تعمل 100
▁скорее 100
▁Tür 100
steme 100
▁globalization 100
3; 100
▁&#93; 100
1; 100
âce 100
▁&#91; 100
нений 100
met 100
▁вак 100
▁لاب 100
▁cities 100
orn 100
▁ermög 100
▁阻 100
▁vont 100
▁женщин 100
▁исп 100
▁الإجمالي 100
ера 100
▁Although 100
▁Govern 100
▁behavior 100
▁seinem 100
مين 100
market 100
▁Bedeut 100
وريا 100
ästin 100
▁выше 100
▁ONU 100
▁ideas 100
▁majorité 100
▁финансовых 100
lus 100
▁мог 100
▁يجب 100
▁steig 100
▁Face 100
▁ظل 100
▁程 100
▁agen 100
actions 100
▁ear 100
▁включая 100
▁probably 100
▁communauté 100
дера 100
inter 100
▁الرغم 100
▁Partei 100
▁утвержда 100
▁人民 100
▁carbone 100
▁extrême 100
▁时间 100
▁exc 100
▁trat 100
istischen 100
▁广 100
лестин 100
▁indépend 100
▁promis 100
oth 100
▁иннова 100
▁зако 100
لول 100
▁casi 100
zustellen 100
▁decid 100
▁她 100
endum 100
▁Währungs 100
rupt 100
▁concur 100
iennent 100
лять 100
ню 100
▁deme 100
▁homme 100
▁МВ 100
▁来说 100
▁Turquie 100
▁Sing 100
▁following 100
▁gains 100
▁limited 100
▁曾 100
▁norm 100
itaire 100
▁относительно 100
▁贫 100
del 100
▁ECB 100
ished 100
▁программы 100
▁step 100
▁укреп 100
▁enfrent 100
▁authorities 100
▁geopoli 100
▁通胀 100
▁Führung 100
▁确保 100
▁include 100
▁algunos 100
▁OTAN 100
▁ayud 100
adamente 100
WF 100
oner 100
ظر 100
افية 100
isierung 100
leihen 100
érale 100
weg 100
▁BCE 100
▁expéri 100
▁gé 100
▁mag 100
что 100
اخل 100
▁tels 100
▁работ 100
▁原因 100
▁Initi 100
▁trotz 100
▁mientras 100
льность 100
▁деятельно 100
▁ca 100
▁مستوى 100
▁Après 100
▁расту 100
▁divid 100
▁Gesetz 100
▁motiv 100
▁布 100
▁Европа 100
▁estadounidense 100
▁Großbritannien 100
▁一样 100
▁劳动 100
▁genau 100
▁experts 100
▁1930 100
▁intellect 100
ерт 100
▁195 100
▁entend 100
▁presque 100
▁الأساسية 100
дель 100
▁militar 100
▁сегодняш 100
▁traditional 100
▁cô 100
▁系统 100
uent 100
рить 100
▁МВФ 100
▁défense 100
wür 100
بين 100
لمانيا 100
▁Fre 100
▁Ress 100
▁допол 100
▁потер 100
▁لابد 100
▁制定 100
▁Moyen 100
يدر 100
▁Occident 100
resp 100
▁negotiations 100
▁يش 100
▁价值 100
лига 100
фици 100
сить 100
▁DC 100
▁recession 100
▁Plus 100
▁contex 100
▁Taiwan 100
▁sozial 100
▁станет 100
▁zus 100
▁жела 100
▁obwohl 100
▁reflec 100
▁construction 100
▁travailleurs 100
يش 100
▁нико 100
▁بالنسبة 100
ull 100
▁Una 100
tamente 100
óg 100
▁adapt 100
▁Wieder 100
▁участи 100
altung 100
cteurs 100
▁donde 100
▁worse 100
▁defense 100
▁экономика 100
▁quar 100
▁Японии 100
▁publics 100
▁Como 100
▁экономический 100
▁modèle 100
سرائ 100
▁suffis 100
jen 100
▁conne 100
uela 100
ماية 100
rought 100
▁أفضل 100
▁Hö 100
ouver 100
▁accus 100
раздо 100
▁очеред 100
▁海 100
minbi 100
▁militäris 100
▁几乎 100
▁сказа 100
عمال 100
▁1960 100
▁Север 100
ссе 100
▁Zwe 100
▁2. 100
▁buy 100
▁نظام 100
▁launch 100
▁gouvern 100
▁nacional 100
aced 100
▁certaines 100
▁status 100
▁wirk 100
هدف 100
خف 100
▁Europas 100
طف 100
▁offer 100
▁currently 100
ños 100
▁有效 100
▁décennies 100
اعد 100
حا 100
▁благодаря 100
▁Américains 100
▁Aleman 100
▁项 100
▁умень 100
▁industries 100
▁laiss 100
▁меньше 100
▁Bedeutung 100
▁是否 100
ляр 100
▁окру 100
▁offic 100
ästinens 100
▁الياب 100
▁structural 100
son 100
▁voll 100
▁شأنه 100
▁middle 100
▁competition 100
raten 100
▁Einfluss 100
▁27 100
▁cues 100
▁спра 100
▁прибы 100
واء 100
▁na 100
▁Col 100
▁alc 100
▁repe 100
▁всегда 100
▁conflit 100
▁Эти 100
▁spec 100
▁alt 100
▁problemas 100
▁подо 100
▁ayant 100
inement 100
olar 100
▁pag 100
▁essential 100
anj 100
дут 100
▁أنها 100
▁подход 100
▁Sad 100
▁erfolg 100
▁réalité 100
ác 100
▁épo 100
iving 100
▁عليه 100
▁الأميركي 100
▁beim 100
▁huge 100
▁Alemania 100
▁从而 100
▁应对 100
arán 100
▁нужно 100
▁медицин 100
▁Süd 100
▁那样 100
stellung 100
▁Fried 100
▁ihrem 100
▁caso 100
▁allen 100
ômage 100
▁seul 100
▁announ 100
eli 100
▁corporate 100
ضة 100
▁Pourtant 100
renz 100
▁премь 100
▁prêts 100
▁энергети 100
gabe 100
ودة 100
غيير 100
▁Arabia 100
克兰 100
▁commerci 100
ynes 100
erungs 100
kommens 100
entr 100
long 100
uation 100
▁interés 100
ителя 100
ственно 100
▁aumento 100
هائ 100
▁poco 100
▁Venez 100
▁الجديدة 100
▁häuf 100
titute 100
▁Ansatz 100
▁bevor 100
▁incon 100
▁collabor 100
andemie 100
一步 100
ماء 100
▁来自 100
▁усилия 100
ró 100
▁cle 100
▁странам 100
▁治 100
▁telles 100
▁демократии 100
▁乌克兰 100
▁appe 100
▁My 100
▁einge 100
▁police 100
▁Sur 100
▁доро 100
ietnam 100
▁доходов 100
▁помощью 100
anda 100
uales 100
▁尤 100
▁清 100
▁非常 100
amm 100
▁políticos 100
▁拉 100
▁businesses 100
▁ثم 100
emen 100
чный 100
▁schwier 100
▁encourage 100
▁أصبح 100
▁verring 100
▁threaten 100
▁التص 100
▁очевид 100
委员 100
▁Те 100
▁modi 100
▁consecuen 100
ott 100
ندوق 100
▁economists 100
▁chômage 100
▁Recht 100
▁ultim 100
▁الروس 100
▁зави 100
зов 100
▁оно 100
▁wollen 100
▁gradu 100
▁negative 100
▁jur 100
▁manten 100
▁époque 100
▁0, 100
ervor 100
program 100
▁halten 100
▁ربما 100
لاف 100
aître 100
▁résultats 100
▁Mc 100
reed 100
▁compl 100
▁наблюда 100
няя 100
▁medida 100
▁соглашения 100
▁نق 100
▁外交 100
▁بسبب 100
▁conta 100
▁affect 100
▁gaz 100
▁unf 100
ettant 100
▁места 100
▁repl 100
hic 100
▁ait 100
▁organizations 100
▁ráp 100
▁各国 100
▁تقد 100
▁near 100
▁finanz 100
▁天 100
لت 100
▁管理 100
▁одно 100
变化 100
wirtschaften 100
▁تط 100
gas 100
▁接受 100
onders 100
▁Ur 100
▁يتعين 100
▁autour 100
▁besser 100
▁permis 100
▁coopération 100
▁тот 100
▁Nove 100
▁встре 100
▁即使 100
uar 100
▁coming 100
▁التأ 100
▁Beg 100
▁loin 100
weisen 100
▁échelle 100
▁schaffen 100
▁执 100
apse 100
▁banking 100
▁pourtant 100
éli 100
ومية 100
▁November 100
▁由于 100
▁虽 100
▁something 100
▁wahrscheinlich 100
мов 100
opol 100
▁Schl 100
▁mechan 100
▁гораздо 100
antita 100
▁réduction 100
▁帮 100
▁Сегодня 100
▁你 100
uly 100
▁تتم 100
▁Brazil 100
▁统 100
тно 100
aktion 100
führung 100
▁Erfolg 100
▁bedeutet 100
▁Bemühungen 100
ula 100
▁publiques 100
داد 100
▁بو 100
▁ess 100
▁绝 100
▁bleibt 100
▁intent 100
▁优 100
▁ouv 100
ollah 100
طن 100
▁仅 100
▁里 100
▁премьер 100
▁ново 100
ждение 100
обра 100
▁líderes 100
▁забо 100
income 100
▁Richt 100
▁глубо 100
▁ingresos 100
▁défin 100
▁تخ 100
▁WAS 100
▁harm 100
▁really 100
▁llev 100
▁рынка 100
uß 100
▁things 100
▁engage 100
▁破坏 100
ontrolle 100
▁entrepr 100
▁供 100
▁إلي 100
▁safe 100
▁Kampf 100
▁гаранти 100
▁共同 100
▁Индии 100
▁analys 100
▁举 100
▁револю 100
▁السياسي 100
▁Arbeitspl 100
زال 100
▁مجموعة 100
oint 100
▁вра 100
▁financing 100
amb 100
rel 100
▁WASH 100
▁psych 100
شكلة 100
▁pet 100
▁ему 100
elten 100
▁contrast 100
▁力 100
▁деле 100
▁travers 100
markt 100
▁Vietnam 100
▁condition 100
ساء 100
fern 100
▁ciudad 100
▁Viel 100
▁говоря 100
▁reducir 100
▁экономике 100
▁远 100
▁道 100
▁decisions 100
▁最大 100
cken 100
▁الإنت 100
▁الدولية 100
▁Zins 100
▁tensions 100
▁stable 100
▁状 100
▁communities 100
onom 100
▁eso 100
▁Innov 100
▁line 100
▁أصبحت 100
▁uncer 100
▁européen 100
▁الاستثمار 100
▁监管 100
▁peup 100
▁collective 100
▁SD 100
ат 100
▁Folgen 100
▁Da 100
entemente 100
▁完全 100
while 100
▁took 100
▁Palestinian 100
INGTON 100
▁monna 100
▁exception 100
▁закон 100
íc 100
▁слова 100
▁还是 100
▁internationales 100
▁降低 100
prech 100
▁renew 100
▁степе 100
▁осла 100
▁radical 100
▁Angesichts 100
▁بوت 100
▁Char 100
▁превра 100
▁forme 100
▁Á 100
▁资产 100
irus 100
▁assurer 100
▁création 100
▁Since 100
▁الساب 100
مويل 100
▁pobl 100
▁собы 100
▁concerns 100
▁精 100
▁Islamic 100
▁Auss 100
▁Jahres 100
▁законо 100
▁extreme 100
▁ún 100
▁appel 100
هج 100
тных 100
teili 100
▁élect 100
▁нару 100
▁chino 100
▁inqui 100
▁Congress 100
عت 100
▁block 100
▁entraî 100
▁保持 100
▁стимули 100
▁isol 100
agt 100
▁vital 100
▁manque 100
▁angesichts 100
чем 100
recht 100
ционных 100
▁الدولة 100
▁политике 100
▁boom 100
▁корпора 100
▁intelligence 100
▁funcion 100
▁simplement 100
▁wrong 100
ственных 100
ليات 100
▁степени 100
▁financières 100
▁aggres 100
▁nueva 100
antages 100
▁quickly 100
▁Den 100
▁side 100
▁波 100
ames 100
тор 100
▁неиз 100
▁oportun 100
▁bord 100
▁double 100
▁projects 100
▁nichts 100
rag 100
▁عدم 100
▁pourquoi 100
ску 100
▁制度 100
▁gan 100
▁join 100
▁integ 100
▁рабочих 100
▁actually 100
чу 100
▁разме 100
▁финансовой 100
rabe 100
ässt 100
organ 100
▁цены 100
▁sharp 100
▁armes 100
▁nächsten 100
auer 100
▁circ 100
▁futuro 100
▁水平 100
▁недав 100
▁пов 100
▁Ressourcen 100
▁manip 100
▁Nigeria 100
▁نمو 100
aufen 100
▁العل 100
▁البنك 100
mans 100
едера 100
▁Mos 100
▁بدأ 100
▁زيادة 100
▁الأخيرة 100
тят 100
▁ини 100
▁WASHINGTON 100
غة 100
orie 100
▁coût 100
▁Су 100
лиж 100
▁одна 100
▁需求 100
▁стало 100
▁effets 100
▁améliorer 100
▁议 100
lle 100
енси 100
cific 100
▁sûr 100
liches 100
▁серьёз 100
▁创造 100
▁erst 100
▁estas 100
▁industriel 100
▁Го 100
▁настоящее 100
▁зо 100
▁300 100
▁bure 100
▁دولة 100
▁развиты 100
▁Egypt 100
trait 100
▁Gewalt 100
▁commitment 100
рей 100
▁нерав 100
ancial 100
▁Запад 100
▁sac 100
▁reality 100
раб 100
▁军事 100
▁момент 100
▁العامة 100
▁dit 100
▁financiera 100
▁russe 100
▁vulnerable 100
▁principales 100
زة 100
▁mauv 100
▁communic 100
▁là 100
▁held 100
▁Westen 100
▁количество 100
▁وليس 100
▁وغير 100
▁ade 100
mäß 100
ettent 100
▁allies 100
▁faibles 100
leistungen 100
▁虽然 100
▁einsch 100
▁creating 100
bene 100
▁мало 100
▁Grande 100
▁помога 100
ётся 100
▁использовать 100
وري 100
▁Co 100
▁терри 100
▁торговли 100
▁Seg 100
tiveness 100
élé 100
ولى 100
▁الخط 100
▁около 100
▁claire 100
▁项目 100
baren 100
▁mind 100
▁Interessen 100
▁IS 100
▁يشكل 100
▁Latin 100
▁certainly 100
▁干 100
opp 100
▁erwar 100
uso 100
нно 100
итывая 100
ненных 100
▁Amerikan 100
▁appropri 100
▁средства 100
chn 100
▁larger 100
▁ставки 100
▁никогда 100
▁Ben 100
▁Hung 100
▁britann 100
▁чрез 100
▁Дей 100
▁territor 100
▁重新 100
زايد 100
ريقيا 100
▁недавно 100
▁современ 100
▁نت 100
▁weltweiten 100
▁stagn 100
▁enable 100
érations 100
▁occur 100
▁Risiken 100
▁Reformen 100
▁integration 100
▁политические 100
▁fu 100
▁осо 100
▁collapse 100
▁State 100
▁Irán 100
pped 100
▁propag 100
▁بإ 100
委员会 100
дой 100
▁Bedro 100
▁инвестиции 100
nels 100
▁obvious 100
▁erne 100
▁guarante 100
-200 100
frica 100
▁气候变化 100
▁болез 100
▁élevé 100
▁hervor 100
▁momento 100
ification 100
uestos 100
▁сом 100
▁существует 100
▁Beziehungen 100
жных 100
▁الديمقراطية 100
▁جز 100
henden 100
▁влияние 100
▁Sub 100
▁наз 100
▁избе 100
istische 100
ye 100
جات 100
▁利率 100
▁immigration 100
▁рынки 100
بع 100
▁kaum 100
itation 100
▁öffentliche 100
▁самом 100
▁transf 100
▁примерно 100
▁scale 100
▁règles 100
▁الفيدر 100
▁Fonds 100
▁quant 100
▁nationalen 100
rak 100
ملكة 100
▁Ant 100
▁basic 100
▁الاحتيا 100
避免 100
▁Mein 100
▁период 100
▁federal 100
▁получи 100
ющими 100
bal 100
▁Всемир 100
▁太 100
тина 100
▁fil 100
▁option 100
ih 100
▁Preis 100
▁Пер 100
▁medidas 100
▁raisons 100
▁zunehmend 100
мби 100
▁gesam 100
▁Mitglied 100
▁came 100
▁monet 100
▁Га 100
▁مف 100
▁rele 100
▁некоторых 100
▁сме 100
ulent 100
▁短 100
▁grundleg 100
▁показыва 100
▁достаточно 100
▁наси 100
▁kommen 100
▁цели 100
▁女 100
▁帮助 100
▁крайне 100
▁identit 100
▁Japanese 100
▁Vladimir 100
hib 100
▁遭 100
▁еди 100
▁долга 100
▁ancien 100
▁ключе 100
▁здоров 100
ieties 100
▁féd 100
▁pró 100
▁lequel 100
▁разли 100
ützen 100
▁Wähl 100
▁者 100
▁souff 100
▁planète 100
bat 100
hörden 100
торов 100
▁jähr 100
▁похо 100
itaires 100
▁feel 100
▁بلدان 100
ließen 100
▁privé 100
▁groupes 100
▁dr 100
▁疫情 100
вшие 100
cepti 100
الب 100
▁作用 100
▁Франции 100
▁непо 100
▁الفائدة 100
▁Ungleich 100
light 100
▁parmi 100
▁зрения 100
ancing 100
▁loi 100
▁bonds 100
▁Kar 100
breit 100
▁arbeit 100
ué 100
▁23 100
rables 100
▁daran 100
▁performance 100
▁不断 100
▁1999 100
▁external 100
▁funding 100
▁变得 100
erse 100
▁Ита 100
жды 100
щен 100
▁uno 100
▁cualquier 100
rat 100
▁Prin 100
▁separ 100
▁contraire 100
moins 100
ächst 100
▁participation 100
▁established 100
▁infrastruct 100
видет 100
anmoins 100
▁programmes 100
▁储 100
▁1997 100
▁solidar 100
▁чув 100
▁estrateg 100
▁Об 100
▁adj 100
▁muj 100
▁протя 100
▁unterstützen 100
uc 100
▁chem 100
▁Druck 100
▁Osten 100
ведения 100
atre 100
жению 100
▁возра 100
ingt 100
▁дове 100
طلاق 100
▁iran 100
▁Daten 100
▁试 100
▁above 100
▁outcome 100
äter 100
▁reducing 100
▁será 100
▁erhalten 100
▁领域 100
▁combat 100
▁التعا 100
▁miembros 100
▁Infrastruktur 100
▁考虑 100
▁known 100
▁организации 100
▁finden 100
▁либера 100
▁independent 100
ногие 100
▁vast 100
▁impuls 100
▁Liber 100
▁actuellement 100
▁ترمب 100
зма 100
▁aider 100
▁ment 100
▁مليار 100
▁فيما 100
▁recognize 100
واز 100
▁2, 100
▁него 100
▁Trumps 100
▁infrastructures 100
year 100
▁Sa 100
ينية 100
rieren 100
▁компаний 100
▁constitue 100
▁Bas 100
▁Uns 100
liquer 100
▁Schutz 100
▁标 100
▁мен 100
▁derzeit 100
▁profit 100
▁أما 100
utri 100
▁alles 100
▁suite 100
▁energía 100
▁自身 100
▁интер 100
▁место 100
isent 100
▁Priv 100
lection 100
ционные 100
trä 100
▁sectors 100
▁inici 100
▁نهاية 100
▁retour 100
▁négociations 100
▁bul 100
▁sw 100
▁permettre 100
ired 100
هداف 100
▁детей 100
jenigen 100
▁prosp 100
▁истории 100
чению 100
▁Grèce 100
▁разру 100
суль 100
▁político 100
▁年代 100
▁consci 100
▁projet 100
▁becoming 100
▁agriculture 100
▁satisf 100
▁действий 100
▁类似 100
▁tecnolog 100
▁поддержку 100
▁الأسواق 100
▁埃 100
▁Bund 100
▁rése 100
▁erheb 100
▁提出 100
▁Europé 100
▁gl 100
▁stre 100
▁building 100
شف 100
▁Clim 100
liance 100
▁参与 100
ья 100
iglich 100
▁ineff 100
▁массо 100
▁lorsqu 100
▁ты 100
▁سل 100
▁或者 100
▁争 100
ель 100
▁Китае 100
▁trouver 100
ría 100
iesen 100
itäts 100
▁buen 100
▁lässt 100
▁прошлом 100
ksam 100
▁يبدو 100
▁санк 100
▁surpl 100
issionen 100
▁Afrika 100
▁Real 100
▁importants 100
ieg 100
▁Unión 100
ضح 100
schn 100
▁hon 100
▁planet 100
▁assistance 100
▁помочь 100
ómo 100
▁обу 100
▁استخدام 100
▁нало 100
▁général 100
▁products 100
▁everyone 100
щим 100
▁israel 100
uft 100
erste 100
▁enorm 100
ورية 100
▁Mark 100
ocrats 100
▁Technolog 100
▁Ха 100
▁就业 100
▁asp 100
▁真正 100
▁мощ 100
aran 100
▁Pop 100
держа 100
▁meeting 100
▁数字 100
nel 100
▁стала 100
▁liberté 100
фо 100
▁Ken 100
▁ense 100
het 100
▁75 100
▁Wer 100
liqu 100
bei 100
▁Atom 100
▁hyp 100
世界 100
uit 100
▁réuss 100
▁决策 100
▁purch 100
▁الحال 100
▁Israeli 100
▁退 100
بيع 100
▁谈判 100
▁umfass 100
▁renforcer 100
▁управления 100
▁Schwellen 100
iera 100
▁يتص 100
▁révé 100
indus 100
▁Most 100
▁НА 100
▁eau 100
iendo 100
дения 100
▁available 100
erver 100
tención 100
▁fau 100
جد 100
▁病 100
شرة 100
конец 100
▁annon 100
haus 100
▁которого 100
▁экономических 100
of 100
▁угле 100
▁Zugang 100
wert 100
▁bisher 100
▁technological 100
اول 100
▁игра 100
▁affec 100
▁осуществ 100
жу 100
▁إذ 100
folge 100
▁vida 100
▁экономические 100
▁годов 100
▁chinesische 100
▁рам 100
▁étab 100
▁hinter 100
▁keinen 100
▁office 100
▁безрабо 100
▁واض 100
▁和平 100
ureusement 100
isti 100
▁radi 100
▁хорошо 100
▁Bal 100
▁erkenn 100
▁أغلب 100
put 100
▁إدارة 100
uh 100
▁除 100
▁soft 100
▁succès 100
▁体系 100
▁existing 100
▁выра 100
▁опи 100
▁ration 100
▁posible 100
▁南 100
embl 100
▁épar 100
▁special 100
▁Fähigkeit 100
▁уче 100
zuf 100
▁基本 100
▁健 100
бер 100
ген 100
жит 100
org 100
▁ثلا 100
▁moyenne 100
▁Facebook 100
дида 100
▁Ziele 100
لاء 100
هما 100
▁تشكل 100
zeitig 100
▁incom 100
▁العشرين 100
tiz 100
▁recurs 100
▁出口 100
▁越来 100
▁Ich 100
kei 100
▁idé 100
▁rob 100
▁باعتبار 100
فيذ 100
teile 100
ärkten 100
▁grands 100
ياة 100
▁resultado 100
▁кла 100
▁越来越 100
▁days 100
▁tard 100
vée 100
▁fri 100
▁Forsch 100
▁responsibility 100
▁attacks 100
مثل 100
mung 100
uman 100
▁пря 100
拉克 100
▁disease 100
urales 100
▁держа 100
▁процесс 100
▁当前 100
retary 100
▁lesqu 100
▁otra 100
▁dictat 100
▁precis 100
▁relatively 100
rog 100
ried 100
leben 100
▁Klimawandel 100
ологи 100
uck 100
▁للح 100
▁ebenso 100
▁минист 100
▁削 100
▁справедли 100
bit 100
▁Sw 100
▁официа 100
▁lediglich 100
sc 100
▁tur 100
▁Vertra 100
▁Евросо 100
▁冲突 100
нали 100
▁dangerous 100
▁Commun 100
legt 100
▁perspective 100
لق 100
▁выго 100
▁celles 100
▁ai 100
▁推动 100
▁شخص 100
▁Fehl 100
illing 100
▁城 100
▁еже 100
нера 100
▁IWF 100
▁peti 100
▁Veränder 100
▁وف 100
anzös 100
▁fossil 100
ünde 100
▁权力 100
пуст 100
likely 100
▁Syrie 100
▁declar 100
▁urgent 100
▁suscepti 100
нит 100
▁性 100
este 100
حدث 100
umul 100
▁191 100
gration 100
▁Mexico 100
лё 100
▁进一步 100
▁easy 100
preise 100
▁révolution 100
ملة 100
▁限制 100
ствии 100
▁mechanism 100
éc 100
цент 100
▁Form 100
▁asset 100
▁данных 100
▁vergangen 100
▁américaines 100
▁名 100
▁亚洲 100
amment 100
▁Америка 100
▁barri 100
▁обеща 100
▁unlikely 100
obili 100
▁Lösung 100
▁étrangère 100
▁results 100
kung 100
▁резер 100
▁ausländ 100
▁affaires 100
ويلة 100
▁fünf 100
▁Great 100
esehen 100
щего 100
▁сам 100
▁pér 100
▁Monetary 100
dica 100
▁deficits 100
طق 100
▁tatsächlich 100
iban 100
▁effond 100
шать 100
▁протяжении 100
али 100
▁AI 100
▁评 100
ingen 100
▁定 100
▁Nob 100
▁Türkei 100
▁стан 100
▁العس 100
▁unver 100
stellen 100
▁gehen 100
▁House 100
ingungen 100
▁dix 100
▁möglich 100
ológ 100
▁иметь 100
▁additional 100
▁спа 100
▁extend 100
tory 100
▁каса 100
▁移民 100
▁grâce 100
▁وز 100
▁超过 100
eros 100
▁age 100
▁hommes 100
IV 100
▁التجارة 100
▁шко 100
ärken 100
▁transport 100
▁Bei 100
ruppe 100
▁объеди 100
▁находится 100
ember 100
▁Selon 100
▁verdad 100
▁vig 100
▁финансовые 100
امب 100
حات 100
▁gab 100
▁coord 100
十年 100
ustain 100
▁связи 100
▁stärker 100
▁در 100
▁tenu 100
▁considérable 100
هن 100
izar 100
▁叙 100
▁надо 100
▁обви 100
▁transformation 100
▁عشر 100
▁фунда 100
▁scientif 100
▁независимо 100
gger 100
ственной 100
▁garanti 100
▁möglicherweise 100
▁死 100
стана 100
▁LONDON 100
▁syn 100
енден 100
▁grup 100
▁воору 100
▁autorités 100
حتى 100
▁亿美元 100
▁ehem 100
▁enorme 100
▁экономику 100
▁Kor 100
▁personne 100
▁فمن 100
▁ralen 100
ienst 100
▁words 100
▁elsewhere 100
amin 100
▁某些 100
▁сы 100
▁confidence 100
▁darüber 100
ثات 100
ющая 100
▁النف 100
▁sosten 100
▁Bras 100
▁school 100
▁ihm 100
glieder 100
▁энергии 100
hood 100
▁stabil 100
▁€ 100
▁一点 100
▁tener 100
мую 100
▁利用 100
ائل 100
inge 100
esses 100
▁Eins 100
▁банк 100
ielt 100
▁начала 100
▁Republik 100
▁учре 100
▁indeed 100
▁doc 100
▁инициа 100
▁Действительно 100
ليل 100
▁关注 100
▁Международ 100
▁准 100
▁прекра 100
▁konzent 100
erne 100
▁инстру 100
тива 100
▁preoc 100
ائمة 100
▁Fam 100
▁groupe 100
▁Conseil 100
▁había 100
▁Europeans 100
▁Lin 100
▁division 100
▁тыся 100
atastrop 100
جاه 100
chau 100
▁win 100
system 100
cciones 100
▁crimin 100
▁devons 100
▁Kontrolle 100
мая 100
▁спосо 100
▁Keynes 100
нстри 100
▁变化 100
▁ито 100
ühren 100
▁Leist 100
▁häufig 100
▁devenir 100
▁desarroll 100
▁Zusammenarbeit 100
zub 100
▁forced 100
▁Adem 100
▁Ближ 100
▁ولقد 100
▁volati 100
▁неравен 100
▁инфляции 100
▁sent 100
▁Cu 100
ko 100
شل 100
tivas 100
▁permiti 100
▁succeed 100
▁convention 100
▁28 100
▁wachs 100
▁الخاصة 100
зоб 100
▁Además 100
▁calcul 100
▁Ла 100
▁للغ 100
▁incap 100
برى 100
▁健康 100
▁извест 100
▁электро 100
▁практически 100
pass 100
▁Pen 100
▁Etat 100
▁aura 100
▁السوق 100
▁因素 100
▁счет 100
olution 100
▁continued 100
▁entreprise 100
جاوز 100
▁tipo 100
▁sovi 100
▁apoyo 100
همة 100
rsch 100
▁derartige 100
pri 100
has 100
▁26 100
▁普京 100
▁dort 100
▁center 100
▁heraus 100
▁От 100
▁ألمانيا 100
▁movement 100
▁verhindern 100
▁视 100
▁الشم 100
märkte 100
▁Trotz 100
▁locales 100
▁bestimm 100
▁млрд 100
▁оказыва 100
▁Emp 100
▁estadounidenses 100
ток 100
راك 100
▁Kenn 100
▁ellos 100
▁Venezuela 100
▁一次 100
arko 100
part 100
ibilidad 100
▁还有 100
пят 100
▁запад 100
▁новой 100
▁помощь 100
дел 100
▁ката 100
▁connaiss 100
ёр 100
▁unw 100
▁较 100
▁servicios 100
gets 100
▁возмо 100
▁促 100
▁欧元区 100
▁теку 100
▁reasons 100
▁身 100
▁wider 100
▁Великобритании 100
سر 100
▁аф 100
▁Stand 100
▁начина 100
жнему 100
▁Japón 100
▁égard 100
▁глобального 100
▁0. 100
▁erste 100
▁Wettbewer 100
▁stimulus 100
▁地方 100
▁Wid 100
▁الحر 100
▁trust 100
▁atteindre 100
pek 100
orters 100
▁самых 100
▁alliance 100
▁clearly 100
▁App 100
▁Absch 100
▁meilleure 100
пря 100
▁Sum 100
▁اتفاق 100
▁尤其 100
عاية 100
bracht 100
▁القطاع 100
▁quienes 100
ustra 100
▁القي 100
▁石 100
▁Sarko 100
▁иг 100
▁Kore 100
▁обеспечи 100
▁puis 100
▁encon 100
▁parts 100
▁mobil 100
▁zehn 100
▁исла 100
▁excessive 100
▁上述 100
كرية 100
▁vier 100
▁wichtige 100
chec 100
▁Estado 100
▁régions 100
kämp 100
ché 100
ربون 100
▁komp 100
▁conten 100
▁القانون 100
▁secteurs 100
▁unil 100
▁quantita 100
▁融 100
▁当然 100
▁vous 100
▁caract 100
▁Strategie 100
ressed 100
tidad 100
▁Даже 100
▁relev 100
▁soutenir 100
▁ambi 100
▁rati 100
скому 100
▁haber 100
يك 100
стем 100
▁démocratique 100
ives 100
▁company 100
▁tres 100
▁visant 100
▁drama 100
▁التحد 100
шее 100
▁heav 100
▁échec 100
▁Tatsache 100
▁рассматри 100
rip 100
▁преду 100
▁côté 100
▁Außen 100
▁envis 100
▁caused 100
oms 100
erait 100
ственные 100
علق 100
▁pert 100
▁совет 100
▁دعم 100
▁ارتفاع 100
▁estar 100
▁балан 100
▁палестин 100
▁knowledge 100
▁Gesellschaft 100
▁предлага 100
▁russischen 100
ческом 100
▁framework 100
▁防 100
▁第一 100
▁Fak 100
▁radic 100
gesetzt 100
▁защиты 100
▁странами 100
▁instituciones 100
ركزي 100
▁Ан 100
▁美联 100
▁جديد 100
▁réforme 100
▁religious 100
▁parliament 100
▁жизнь 100
▁глобальной 100
▁تض 100
rage 100
▁Militär 100
▁worldwide 100
▁prolong 100
▁финансового 100
▁Nationen 100
▁وضع 100
ший 100
ритан 100
▁outside 100
▁климати 100
care 100
like 100
▁llam 100
ativas 100
▁Depuis 100
реть 100
▁Гре 100
▁distribution 100
▁ning 100
▁الديون 100
عضاء 100
▁Sor 100
▁invasion 100
▁Second 100
▁helped 100
▁程度 100
▁然 100
▁Erdo 100
▁largement 100
▁民众 100
▁инди 100
▁التك 100
▁tenden 100
▁Port 100
▁green 100
▁Armut 100
▁美联储 100
▁пути 100
timmen 100
▁فال 100
▁quatre 100
▁思 100
alisme 100
▁helfen 100
▁Richtung 100
▁朝 100
лены 100
▁الهند 100
▁brought 100
anyah 100
haupt 100
idem 100
▁maintenir 100
▁错 100
▁средств 100
raf 100
▁活动 100
▁anders 100
▁الوطنية 100
delà 100
▁adm 100
▁cab 100
alists 100
прежнему 100
▁化 100
▁医疗 100
▁product 100
▁Risiko 100
▁answer 100
▁опера 100
▁создать 100
tout 100
▁мак 100
▁Medien 100
▁不可 100
خفاض 100
▁وإذا 100
▁worth 100
▁hub 100
achen 100
▁Alors 100
▁sommes 100
▁Unf 100
бере 100
▁prest 100
▁próxim 100
einander 100
▁Cent 100
▁дипло 100
اذ 100
▁erg 100
▁大部分 100
▁phys 100
▁ersch 100
▁combusti 100
куп 100
▁смы 100
▁другой 100
▁الأوروبية 100
ivil 100
▁прода 100
imiento 100
▁message 100
▁适 100
وان 100
▁sí 100
called 100
лиза 100
اليا 100
▁hous 100
▁ofre 100
▁beit 100
▁fuel 100
▁Zweit 100
▁engag 100
aban 100
▁экологи 100
raft 100
würd 100
▁穆 100
рек 100
anges 100
▁кампа 100
اه 100
▁走 100
risen 100
thod 100
▁заклю 100
▁столк 100
▁demasi 100
▁التنمية 100
feld 100
ilos 100
▁otro 100
▁damage 100
▁облига 100
▁مص 100
▁fallen 100
anten 100
▁парла 100
▁кандида 100
▁抵 100
▁sym 100
▁创新 100
▁بنك 100
▁divis 100
itié 100
▁Esto 100
▁меха 100
▁миру 100
▁أهمية 100
▁مليون 100
▁Gesundheit 100
▁爆 100
وال 100
▁modo 100
▁дело 100
▁élevés 100
▁restruct 100
poir 100
eller 100
ielle 100
▁notwend 100
▁عملية 100
handlungen 100
ум 100
▁相关 100
▁choice 100
▁región 100
rad 100
tión 100
▁الشعب 100
▁вместе 100
▁السب 100
▁solche 100
avía 100
making 100
▁陷 100
itan 100
onté 100
▁любо 100
▁book 100
fi 100
▁Sal 100
▁производства 100
▁法律 100
ременно 100
▁cli 100
▁Ha 100
▁besonders 100
▁leave 100
▁работы 100
▁существу 100
▁effectively 100
axim 100
▁эксп 100
▁parece 100
rado 100
▁решений 100
▁prep 100
▁front 100
▁productivité 100
ió 100
▁Esta 100
▁подвер 100
economic 100
▁крайней 100
▁足 100
чными 100
▁donner 100
▁做出 100
▁Flü 100
▁Rich 100
▁kommt 100
▁größten 100
▁универ 100
ecu 100
عداد 100
личие 100
▁فضلاً 100
шли 100
▁НАТО 100
▁точки 100
▁взаимо 100
▁дохода 100
▁今天 100
▁Chanc 100
▁funktion 100
▁conclusion 100
▁afford 100
▁allgeme 100
▁bénéfic 100
▁électeurs 100
▁поддержки 100
▁ehemal 100
▁militaires 100
cup 100
▁Che 100
cts 100
▁выбросов 100
▁aufge 100
▁campagne 100
▁десятилетия 100
▁sería 100
▁offre 100
▁récession 100
▁لع 100
ware 100
▁acceler 100
▁beginning 100
▁早 100
▁предполага 100
▁institutional 100
oper 100
▁défis 100
▁debería 100
▁潜 100
ände 100
рий 100
▁colon 100
ierungs 100
▁苏 100
▁entier 100
ema 100
▁sort 100
▁最后 100
▁защи 100
▁climático 100
▁Esp 100
▁nord 100
▁prove 100
prechen 100
▁contrô 100
▁évolution 100
седа 100
▁débat 100
▁тенден 100
гани 100
وبة 100
▁أق 100
ticas 100
etting 100
▁continuer 100
▁équili 100
▁juste 100
esent 100
اقات 100
▁fully 100
zession 100
▁Ва 100
▁thing 100
▁recursos 100
дно 100
▁allein 100
▁Republican 100
▁внутри 100
▁journal 100
设施 100
lles 100
former 100
купа 100
aries 100
ördern 100
▁University 100
▁amerikanische 100
zogen 100
▁gente 100
gor 100
▁правила 100
чего 100
斯兰 100
▁raise 100
▁monnaie 100
▁Singap 100
▁warum 100
▁Вме 100
▁Таким 100
▁卡 100
▁applic 100
▁ru 100
endra 100
▁всей 100
▁train 100
▁почему 100
▁London 100
▁постав 100
divers 100
▁auster 100
ائد 100
▁podrían 100
▁societies 100
▁обеспечить 100
taire 100
▁warn 100
▁мар 100
▁كيف 100
▁below 100
▁management 100
▁shared 100
▁Goog 100
rieben 100
▁mujeres 100
▁valeurs 100
▁inclusive 100
▁Act 100
▁Nobel 100
▁损 100
▁حالة 100
losigkeit 100
▁وجه 100
hetor 100
▁ليست 100
üt 100
▁Health 100
▁الأخرى 100
▁затра 100
▁преступ 100
ani 100
▁armée 100
▁renminbi 100
▁借 100
▁常 100
▁البلاد 100
ahen 100
tico 100
▁обычно 100
▁Ergebnis 100
▁успеш 100
жает 100
▁Grie 100
▁условиях 100
stances 100
▁рели 100
▁étrangers 100
▁franç 100
▁отказа 100
öhn 100
▁Rechts 100
巴马 100
▁combin 100
▁观点 100
▁zero 100
▁transfer 100
▁отме 100
▁реформы 100
▁股 100
▁时候 100
▁cier 100
▁Natürlich 100
тые 100
heim 100
док 100
▁вкла 100
▁family 100
▁联盟 100
agan 100
▁крупней 100
зм 100
шло 100
gents 100
▁يكن 100
حاء 100
▁Mod 100
▁конс 100
▁التضخم 100
▁gemacht 100
▁surtout 100
ertes 100
▁Reguli 100
▁projets 100
▁首先 100
▁Georg 100
▁систему 100
unis 100
▁伊斯兰 100
▁nehmen 100
▁石油 100
▁neuer 100
▁wären 100
▁mid 100
▁Climate 100
▁élector 100
▁миллиардов 100
拉伯 100
▁ata 100
▁双 100
▁отде 100
kräfte 100
CC 100
ika 100
▁link 100
▁вакци 100
▁奥巴马 100
▁восп 100
▁Erdoğ 100
▁muchas 100
كرة 100
▁via 100
▁Многие 100
▁безработи 100
▁停 100
▁بار 100
▁ahead 100
▁incer 100
▁signifie 100
努力 100
▁Simil 100
▁государств 100
aks 100
▁城市 100
راتيجية 100
طفال 100
▁информации 100
▁يؤدي 100
▁资源 100
▁exportations 100
▁causes 100
▁Griechen 100
ванию 100
▁كبيرة 100
▁家庭 100
▁Ausgaben 100
▁mondiaux 100
▁取得 100
▁mista 100
危机 100
▁Anteil 100
▁instead 100
▁judi 100
▁Trade 100
▁unserer 100
▁ресурсов 100
▁manufacturing 100
▁1991 100
спубликан 100
رها 100
▁atención 100
kes 100
▁相反 100
грации 100
▁sentiment 100
▁ترك 100
терна 100
▁ihres 100
▁انت 100
سرائيل 100
▁Kont 100
▁Mean 100
▁неме 100
▁ 100
e 100
n 100
i 100
a 100
t 100
s 100
r 100
o 100
l 100
d 100
u 100
c 100
h 100
о 100
m 100
p 100
е 100
и 100
g 100
а 100
н 100
, 100
т 100
ا 100
f 100
с 100
b 100
р 100
ل 100
. 100
в 100
v 100
л 100
w 100
ي 100
м 100
y 100
é 100
к 100
д 100
п 100
م 100
ن 100
k 100
у 100
و 100
ت 100
ы 100
я 100
q 100
ر 100
z 100
ь 100
г 100
б 100
з 100
ع 100
ة 100
ب 100
د 100
ч 100
й 100
A 100
’ 100
ف 100
S 100
- 100
E 100
х 100
س 100
0 100
x 100
أ 100
ق 100
ж 100
I 100
ك 100
ه 100
; 100
的 100
ح 100
T 100
ю 100
C 100
ä 100
P 100
B 100
D 100
& 100
M 100
ü 100
U 100
L 100
1 100
ц 100
j 100
2 100
ш 100
– 100
ج 100
R 100
W 100
G 100
à 100
F 100
。 100
ى 100
N 100
щ 100
إ 100
، 100
ó 100
K 100
ص 100
э 100
è 100
ط 100
O 100
خ 100
9 100
) 100
( 100
ش 100
ф 100
ذ 100
í 100
ö 100
V 100
ض 100
H 100
á 100
国 100
ز 100
ث 100
“ 100
J 100
5 100
: 100
% 100
С 100
在 100
” 100
一 100
是 100
В 100
ê 100
3 100
غ 100
和 100
ئ 100
Z 100
А 100
К 100
8 100
Н 100
ß 100
4 100
不 100
7 100
» 100
« 100
这 100
人 100
П 100
有 100
— 100
6 100
ء 100
了 100
ً 100
? 100
为 100
О 100
И 100
中 100
ظ 100
ё 100
政 100
大 100
以 100
Е 100
ـ 100
能 100
们 100
会 100
对 100
经 100
Т 100
年 100
Б 100
可 100
美 100
要 100
而 100
М 100
来 100
个 100
他 100
家 100
其 100
Р 100
Д 100
但 100
行 100
Ш 100
、 100
于 100
Y 100
上 100
到 100
成 100
也 100
地 100
„ 100
发 100
如 100
将 100
ñ 100
ؤ 100
ô 100
出 100
力 100
多 100
主 100
É 100
时 100
济 100
所 100
实 100
欧 100
全 100
法 100
现 100
ú 100
民 100
生 100
利 100
Г 100
方 100
我 100
些 100
自 100
资 100
更 100
动 100
最 100
性 100
斯 100
Э 100
آ 100
者 100
因 100
过 100
新 100
就 100
此 100
之 100
制 100
本 100
并 100
重 100
得 100
定 100
业 100
化 100
机 100
与 100
长 100
加 100
用 100
前 100
同 100
作 100
应 100
持 100
洲 100
进 100
度 100
公 100
世 100
分 100
当 100
$ 100
后 100
体 100
Q 100
Ф 100
关 100
下 100
然 100
正 100
特 100
产 100
都 100
事 100
增 100
金 100
府 100
面 100
理 100
果 100
样 100
高 100
无 100
它 100
策 100
及 100
治 100
提 100
外 100
部 100
种 100
问 100
导 100
相 100
ç 100
平 100
意 100
合 100
已 100
基 100
入 100
战 100
界 100
У 100
比 100
期 100
数 100
ъ 100
从 100
Л 100
球 100
需 100
场 100
X 100
通 100
变 100
统 100
保 100
义 100
目 100
那 100
题 100
管 100
还 100
权 100
工 100
由 100
决 100
开 100
联 100
该 100
· 100
着 100
任 100
支 100
克 100
ُ 100
学 100
非 100
间 100
З 100
总 100
被 100
领 100
尔 100
反 100
选 100
û 100
î 100
明 100
市 100
务 100
受 100
区 100
说 100
或 100
内 100
亚 100
没 100
系 100
代 100
َ 100
议 100
使 100
情 100
/ 100
投 100
德 100
盟 100
Х 100
拉 100
必 100
率 100
解 100
普 100
日 100
结 100
量 100
共 100
元 100
认 100
际 100
员 100
许 100
巴 100
计 100
Ü 100
取 100
ù 100
立 100
收 100
展 100
价 100
表 100
让 100
信 100
去 100
â 100
西 100
易 100
朗 100
社 100
改 100
强 100
么 100
融 100
确 100
施 100
罗 100
论 100
Ч 100
只 100
很 100
争 100
心 100
未 100
起 100
Ö 100
向 100
何 100
危 100
低 100
常 100
至 100
达 100
求 100
少 100
约 100
等 100
失 100
近 100
点 100
安 100
里 100
造 100
致 100
好 100
标 100
建 100
供 100
程 100
Я 100
组 100
构 100
今 100
规 100
债 100
伊 100
则 100
须 100
次 100
预 100
位 100
助 100
续 100
道 100
气 100
兰 100
式 100
口 100
益 100
月 100
难 100
源 100
格 100
影 100
接 100
候 100
ِ 100
党 100
两 100
英 100
响 100
教 100
放 100
尽 100
币 100
且 100
包 100
险 100
各 100
俄 100
货 100
据 100
做 100
银 100
十 100
仅 100
Ц 100
况 100
几 100
效 100
马 100
想 100
极 100
设 100
类 100
够 100
消 100
活 100
技 100
直 100
协 100
划 100
阿 100
越 100
œ 100
即 100
项 100
减 100
交 100
天 100
模 100
企 100
革 100
子 100
转 100
布 100
看 100
Ю 100
步 100
第 100
军 100
身 100
# 100
税 100
观 100
推 100
流 100
风 100
别 100
存 100
降 100
势 100
财 100
显 100
值 100
贸 100
创 100
物 100
承 100
带 100
病 100
司 100
再 100
指 100
复 100
什 100
给 100
仍 100
尼 100
引 100
获 100
根 100
似 100
织 100
括 100
乎 100
希 100
科 100
调 100
原 100
品 100
威 100
水 100
举 100
始 100
色 100
术 100
众 100
核 100
条 100
小 100
采 100
望 100
报 100
止 100
案 100
手 100
境 100
例 100
担 100
亿 100
东 100
真 100
商 100
Ä 100
证 100
运 100
识 100
处 100
具 100
首 100
ï 100
护 100
远 100
名 100
己 100
击 100
三 100
印 100
严 100
富 100
略 100
言 100
随 100
万 100
¿ 100
服 100
回 100
知 100
视 100
件 100
足 100
维 100
命 100
二 100
却 100
速 100
列 100
派 100
费 100
升 100
令 100
限 100
准 100
否 100
؟ 100
集 100
储 100
门 100
疫 100
؛ 100
先 100
历 100
传 100
形 100
字 100
型 100
注 100
每 100
研 100
断 100
局 100
整 100
激 100
‐ 100
究 100
往 100
完 100
破 100
除 100
边 100
责 100
纪 100
终 100
措 100
林 100
依 100
态 100
临 100
感 100
控 100
绝 100
土 100
冲 100
负 100
备 100
央 100
免 100
文 100
状 100
退 100
突 100
示 100
款 100
算 100
困 100
才 100
缺 100
移 100
像 100
甚 100
某 100
电 100
巨 100
竞 100
ë 100
监 100
告 100
官 100
太 100
超 100
排 100
功 100
础 100
环 100
紧 100
奥 100
女 100
话 100
诺 100
ّ 100
容 100
稳 100
息 100
À 100
坦 100
育 100
参 100
海 100
! 100
史 100
路 100
纳 100
压 100
继 100
挑 100
级 100
考 100
见 100
切 100
族 100
深 100
把 100
团 100
弱 100
扩 100
愿 100
质 100
判 100
试 100
快 100
南 100
称 100
苏 100
医 100
独 100
谈 100
域 100
胀 100
象 100
打 100
私 100
素 100
胁 100
味 100
劳 100
单 100
败 100
离 100
图 100
害 100
评 100
北 100
网 100
委 100
防 100
占 100
卫 100
又 100
油 100
坏 100
兴 100
另 100
充 100
Й 100
头 100
疗 100
避 100
专 100
测 100
伯 100
拥 100
份 100
暴 100
石 100
宣 100
择 100
广 100
武 100
迫 100
虑 100
述 100
乌 100
清 100
台 100
衡 100
额 100
贷 100
便 100
疑 100
付 100
段 100
思 100
裁 100
恐 100
善 100
器 100
干 100
哈 100
波 100
勒 100
律 100
张 100
农 100
京 100
院 100
抗 100
Ж 100
死 100
较 100
卡 100
票 100
贫 100
短 100
健 100
营 100
满 100
空 100
估 100
查 100
毒 100
键 100
验 100
均 100
陷 100
° 100
》 100
《 100
沙 100
曾 100
执 100
层 100
阻 100
束 100
互 100
脱 100
伦 100
优 100
周 100
记 100
剧 100
错 100
城 100
密 100
精 100
福 100
她 100
料 100
轻 100
队 100
缩 100
庭 100
Á 100
针 100
帮 100
埃 100
你 100
尤 100
康 100
早 100
群 100
遭 100
适 100
损 100
端 100
范 100
线 100
虽 100
补 100
景 100
职 100
误 100
食 100
批 100
走 100
促 100
差 100
顿 100
夫 100
声 100
积 100
停 100
朝 100
围 100
股 100
席 100
百 100
缓 100
四 100
角 100
碳 100
援 100
士 100
萨 100
儿 100
削 100
底 100
配 100
鲜 100
哥 100
刺 100
智 100
努 100
冠 100
半 100
急 100
药 100
久 100
杀 100
演 100
借 100
靠 100
初 100
叙 100
待 100
胜 100
习 100
€ 100
住 100
爆 100
落 100
购 100
ğ 100
白 100
老 100
抵 100
州 100
耳 100
吸 100
塔 100
恶 100
穆 100
买 100
序 100
念 100
华 100
励 100
潜 100
车 100
班 100
释 100
双 100
汇 100
灾 100
Ь 100
警 100
染 100
寻 100
幅 100
鲁 100
腊 100
肯 100
苗 100
券 100
衰 100
坚 100
媒 100
繁 100
赤 100
赖 100
找 100
倍 100
五 100
办 100
阶 100
奇 100
邦 100
伴 100
连 100
右 100
泛 100
米 100
神 100
救 100
黎 100
简 100
著 100
讨 100
温 100
客 100
登 100
留 100
房 100
乏 100
牙 100
塞 100
钱 100
疾 100
趋 100
守 100
荣 100
姆 100
谓 100
亡 100
左 100
假 100
幸 100
户 100
热 100
侵 100
追 100
闻 100
童 100
友 100
罪 100
犯 100
松 100
背 100
置 100
毫 100
鼓 100
察 100
征 100
归 100
弹 100
刻 100
粹 100
换 100
居 100
拜 100
逐 100
燃 100
碍 100
怖 100
翼 100
唯 100
纽 100
乱 100
固 100
穷 100
杂 100
烈 100
架 100
训 100
眼 100
禁 100
拒 100
络 100
竟 100
书 100
索 100
异 100
障 100
跨 100
` 100
赢 100
忧 100
宗 100
讲 100
乐 100
弃 100
恰 100
良 100
修 100
哪 100
妇 100
伙 100
迅 100
光 100
养 100
装 100
延 100
瓦 100
游 100
+ 100
零 100
洋 100
Ð 100
节 100
斗 100
韩 100
永 100
恢 100
默 100
倒 100
既 100
裂 100
恩 100
遇 100
怀 100
爱 100
伤 100
莫 100
袭 100
汗 100
渐 100
诉 100
署 100
余 100
照 100
袖 100
微 100
予 100
号 100
挥 100
敦 100
٪ 100
腐 100
宪 100
欢 100
崩 100
曼 100
森 100
瑞 100
亲 100
冷 100
毕 100
花 100
迪 100
审 100
峰 100
吉 100
允 100
软 100
库 100
缘 100
千 100
呼 100
雷 100
启 100
属 100
刚 100
盖 100
拿 100
灭 100
享 100
室 100
黑 100
托 100
火 100
蓄 100
签 100
忽 100
散 100
古 100
盛 100
逊 100
违 100
宽 100
惊 100
涨 100
苦 100
顾 100
替 100
析 100
觉 100
跌 100
岛 100
语 100
露 100
吗 100
糟 100
售 100
听 100
偿 100
港 100
站 100
贝 100
细 100
录 100
攻 100
博 100
迎 100
偏 100
映 100
旦 100
墨 100
典 100
播 100
犹 100
毁 100
贴 100
含 100
框 100
陆 100
按 100
遍 100
梅 100
绿 100
遏 100
掌 100
输 100
距 100
故 100
‘ 100
师 100
涉 100
概 100
溃 100
夺 100
怕 100
诚 100
诸 100
摆 100
慢 100
辩 100
粮 100
累 100
校 100
Ã 100
写 100
销 100
操 100
莱 100
志 100
灵 100
歧 100
邻 100
孩 100
混 100
洛 100
透 100
旨 100
献 100
糕 100
" 100
宏 100
ٍ 100
脆 100
答 100
敌 100
符 100
督 100
汽 100
荡 100
振 100
秩 100
休 100
访 100
蒂 100
片 100
菲 100
驱 100
授 100
脑 100
遗 100
痛 100
呢 100
尚 100
弗 100
怎 100
旧 100
宫 100
硬 100
艾 100
翻 100
雇 100
绪 100
症 100
检 100
湾 100
沃 100
崛 100
鉴 100
滞 100
圣 100
佳 100
谁 100
男 100
悲 100
香 100
润 100
覆 100
星 100
倾 100
岗 100
尊 100
轮 100
楚 100
培 100
链 100
隐 100
赛 100
彻 100
麦 100
暂 100
盈 100
触 100
迹 100
勃 100
赞 100
赫 100
季 100
帝 100
撤 100
纷 100
六 100
丹 100
跟 100
秘 100
卢 100
贡 100
膨 100
套 100
患 100
岁 100
污 100
喜 100
贬 100
昂 100
撒 100
山 100
凯 100
氧 100
闭 100
聚 100
迈 100
净 100
逃 100
翰 100
迟 100
丧 100
封 100
描 100
词 100
齐 100
村 100
怪 100
铁 100
径 100
王 100
账 100
艰 100
母 100
暖 100
裕 100
扰 100
吁 100
遵 100
途 100
谋 100
沉 100
扎 100
请 100
潮 100
徒 100
浪 100
誉 100
奖 100
叶 100
⁄ 100
胡 100
抑 100
残 100
循 100
血 100
般 100
怒 100
音 100
申 100
摩 100
雄 100
野 100
庞 100
暗 100
廷 100
版 100
贵 100
折 100
章 100
龄 100
握 100
虚 100
乔 100
逆 100
笔 100
岸 100
罚 100
迷 100
熟 100
召 100
末 100
龙 100
纵 100
捕 100
慎 100
薪 100
塑 100
扭 100
掉 100
蒙 100
飞 100
耶 100
震 100
阵 100
厂 100
隔 100
麻 100
丁 100
耗 100
镇 100
顶 100
曲 100
探 100
佛 100
孤 100
街 100
废 100
副 100
八 100
阳 100
频 100
读 100
句 100
焦 100
若 100
Ñ 100
泰 100
省 100
刑 100
捍 100
截 100
兵 100
杰 100
泡 100
七 100
© 100
渡 100
旅 100
兑 100
剩 100
趣 100
_ 100
僚 100
炸 100
嫩 100
草 100
座 100
ń 100
• 100
航 100
~ 100
倡 100
订 100
茨 100
青 100
愤 100
伟 100
雅 100
廉 100
九 100
辑 100
河 100
父 100
抱 100
舞 100
煤 100
狂 100
锁 100
沫 100
拖 100
谷 100
冒 100
惧 100
滋 100
妥 100
赋 100
届 100
醒 100
戏 100
堪 100
附 100
皮 100
澳 100
纠 100
洁 100
萧 100
押 100
扮 100
揭 100
尝 100
送 100
叛 100
坛 100
捐 100
植 100
佩 100
辞 100
霍 100
韦 100
矛 100
拯 100
忍 100
红 100
杜 100
梦 100
宾 100
射 100
惩 100
顺 100
桥 100
盾 100
剂 100
抛 100
牌 100
殖 100
惠 100
疲 100
御 100
沿 100
黄 100
戈 100
荷 100
桑 100
牲 100
课 100
仿 100
丰 100
卖 100
摇 100
彼 100
筑 100
颇 100
幕 100
藏 100
劲 100
唐 100
垄 100
僵 100
筹 100
伐 100
诊 100
忘 100
材 100
介 100
兹 100
殊 100
杆 100
坐 100
歌 100
滑 100
牛 100
斥 100
脚 100
诱 100
摧 100
屠 100
竭 100
逻 100
扬 100
渴 100
盘 100
卷 100
巩 100
泽 100
撑 100
练 100
牺 100
匈 100
枪 100
夏 100
饥 100
惯 100
耐 100
板 100
篇 100
坡 100
谨 100
抓 100
园 100
劣 100
宝 100
俗 100
仇 100
豪 100
践 100
阴 100
仰 100
戴 100
帕 100
纯 100
兄 100
弟 100
滥 100
晚 100
契 100
春 100
烟 100
癌 100
剥 100
纸 100
踪 100
杠 100
毛 100
洞 100
孟 100
煽 100
赶 100
谢 100
皇 100
惨 100
兼 100
愈 100
招 100
绕 100
裔 100
宜 100
Í 100
缅 100
恨 100
迁 100
漫 100
贾 100
胆 100
吃 100
肆 100
酷 100
催 100
惑 100
树 100
祖 100
谴 100
堡 100
吹 100
敏 100
幻 100
玛 100
履 100
萎 100
ŕ 100
¥ 100
朋 100
弥 100
柏 100
甸 100
慌 100
荒 100
怨 100
奋 100
鱼 100
渠 100
驻 100
厉 100
忠 100
酬 100
勇 100
罕 100
巧 100
遥 100
船 100
辛 100
č 100
炎 100
剑 100
忆 100
敢 100
́ 100
冰 100
编 100
亦 100
炭 100
胞 100
霸 100
烦 100
奉 100
飙 100
漏 100
掩 100
欺 100
迄 100
叫 100
垒 100
轨 100
涌 100
壁 100
饿 100
块 100
丝 100
静 100
疟 100
尖 100
跃 100
披 100
汉 100
ł 100
淡 100
洪 100
填 100
欲 100
驾 100
胎 100
糊 100
返 100
墙 100
辱 100
挤 100
狱 100
津 100
­ 100
洗 100
馆 100
沦 100
艺 100
厌 100
婚 100
榜 100
丽 100
屈 100
凭 100
衷 100
讽 100
晰 100
综 100
肥 100
乃 100
呈 100
肉 100
夸 100
妙 100
拨 100
蔓 100
贯 100
沟 100
旗 100
矿 100
递 100
饱 100
餐 100
骗 100
吞 100
穿 100
颠 100
鲍 100
厚 100
稀 100
钢 100
骤 100
宰 100
笑 100
讯 100
俱 100
浮 100
š 100
寿 100
床 100
虐 100
店 100
礼 100
峻 100
牢 100
雨 100
氏 100
孕 100
隆 100
番 100
捷 100
诞 100
丑 100
饮 100
庇 100
董 100
‚ 100
欠 100
谎 100
堂 100
木 100
狭 100
凸 100
挽 100
搜 100
猛 100
田 100
绩 100
娜 100
灰 100
陈 100
£ 100
辅 100
溢 100
肺 100
钩 100
匹 100
坎 100
夜 100
拟 100
芬 100
阁 100
详 100
钟 100
挪 100
庆 100
钦 100
菌 100
恋 100
糖 100
玩 100
酒 100
旱 100
牵 100
扣 100
赌 100
慨 100
侧 100
慈 100
宁 100
阱 100
敬 100
脸 100
伪 100
屋 100
哲 100
碎 100
租 100
询 100
歇 100
薄 100
堕 100
李 100
码 100
镑 100
堆 100
缔 100
ْ 100
页 100
奈 100
赚 100
吨 100
圈 100
潘 100
葡 100
寨 100
祉 100
萄 100
偶 100
崇 100
赠 100
旺 100
寄 100
脏 100
蚀 100
池 100
旋 100
摄 100
虫 100
烧 100
画 100
慑 100
欣 100
魔 100
涵 100
砖 100
载 100
割 100
骚 100
漠 100
肃 100
弊 100
卿 100
愚 100
锡 100
慧 100
挠 100
浓 100
壮 100
忙 100
秀 100
臣 100
携 100
晋 100
蓝 100
籍 100
Ž 100
ć 100
惜 100
卜 100
妨 100
弄 100
彩 100
奏 100
慷 100
寡 100
冻 100
蛋 100
咎 100
婴 100
横 100
耻 100
衣 100
顽 100
庸 100
乘 100
¡ 100
孙 100
浦 100
甘 100
靡 100
擎 100
凡 100
厄 100
伸 100
̧ 100
册 100
旁 100
泄 100
舒 100
悬 100
扼 100
挫 100
瑟 100
羞 100
挂 100
隘 100
凝 100
睹 100
绘 100
柱 100
涯 100
扫 100
奴 100
驳 100
柬 100
沮 100
疯 100
庄 100
绑 100
吓 100
杯 100
赐 100
锐 100
埔 100
姿 100
邮 100
仔 100
蠢 100
å 100
韧 100
轰 100
瓜 100
缴 100
舍 100
邓 100
尾 100
谬 100
雪 100
奠 100
疏 100
渔 100
猜 100
窃 100
蓬 100
搞 100
攀 100
粗 100
μ 100
邀 100
君 100
壤 100
莎 100
誓 100
辖 100
ę 100
逼 100
云 100
悉 100
慕 100
磨 100
‒ 100
晓 100
诈 100
傲 100
邪 100
岩 100
晤 100
讼 100
伍 100
挣 100
亨 100
刊 100
Ú 100
溯 100
瘫 100
瞩 100
佐 100
挡 100
抨 100
炮 100
聪 100
拓 100
液 100
痪 100
芝 100
铺 100
卓 100
珍 100
− 100
乡 100
亮 100
桶 100
悖 100
祝 100
讶 100
锋 100
役 100
棘 100
豫 100
贪 100
詹 100
挺 100
裸 100
募 100
抽 100
逮 100
跳 100
遣 100
粉 100
抬 100
罩 100
豁 100
颁 100
抚 100
刀 100
碰 100
阅 100
ã 100
吧 100
疆 100
衍 100
臭 100
箭 100
涅 100
甲 100
罢 100
饭 100
撰 100
楼 100
泥 100
飓 100
牧 100
扶 100
盗 100
囚 100
乳 100
坝 100
忌 100
苹 100
劾 100
妻 100
劫 100
辈 100
咨 100
辆 100
盲 100
姓 100
玻 100
辙 100
Ы 100
岌 100
亏 100
撞 100
饰 100
伏 100
惕 100
蛮 100
辜 100
垮 100
弈 100
悄 100
贩 100
丘 100
仁 100
抢 100
箱 100
腾 100
酋 100
耀 100
貌 100
喀 100
冬 100
帐 100
稍 100
佣 100
浅 100
丢 100
拔 100
宅 100
祸 100
掠 100
脊 100
偷 100
夕 100
拙 100
桌 100
秋 100
钞 100
驶 100
æ 100
氛 100
赏 100
踏 100
镜 100
氢 100
谱 100
昭 100
嫌 100
瞻 100
舆 100
郁 100
凶 100
魅 100
泉 100
添 100
拍 100
灌 100
闲 100
勾 100
尘 100
灯 100
勤 100
揽 100
宇 100
髓 100
阐 100
塌 100
捉 100
羊 100
衅 100
慰 100
拘 100
碑 100
兆 100
炼 100
械 100
 100
歉 100
舰 100
恒 100
敲 100
熊 100
眉 100
井 100
仓 100
啸 100
隶 100
抹 100
喻 100
魁 100
仪 100
孔 100
痕 100
旬 100
棒 100
汲 100
棋 100
琳 100
聘 100
莽 100
幼 100
拆 100
̈ 100
哀 100
蔑 100
掘 100
堵 100
曝 100
逢 100
È 100
梁 100
瓶 100
昔 100
赔 100
凌 100
搭 100
擦 100
皆 100
骨 100
葛 100
埋 100
淘 100
憾 100
翁 100
奢 100
挖 100
戮 100
叹 100
捞 100
缚 100
拢 100
纲 100
江 100
畴 100
芯 100
虎 100
蹈 100
馈 100
囊 100
烂 100
砍 100
诗 100
跑 100
闹 100
尿 100
朱 100
泊 100
窗 100
粒 100
串 100
卸 100
嘲 100
汰 100
侯 100
圆 100
妄 100
尸 100
圾 100
垃 100
川 100
戒 100
猩 100
硅 100
贿 100
奶 100
拼 100
枯 100
渗 100
蚊 100
鬼 100
槛 100
谍 100
坠 100
迭 100
阔 100
颈 100
唤 100
胖 100
辉 100
娱 100
搁 100
辨 100
拾 100
钻 100
枚 100
睫 100
铀 100
鹰 100
婪 100
侨 100
逝 100
鸡 100
姻 100
阀 100
嘴 100
菜 100
峙 100
钉 100
柯 100
蔽 100
谐 100
驰 100
宿 100
肩 100
腥 100
锦 100
匿 100
摊 100
腰 100
午 100
寸 100
掀 100
郎 100
铭 100
] 100
儒 100
悔 100
懈 100
酿 100
[ 100
寒 100
擅 100
赴 100
插 100
档 100
赎 100
刷 100
奸 100
撮 100
窄 100
ٌ 100
乍 100
颗 100
畏 100
躲 100
幽 100
畅 100
笼 100
仲 100
喊 100
妮 100
崖 100
濒 100
呆 100
峡 100
搬 100
珠 100
辟 100
仗 100
豆 100
厅 100
盯 100
苛 100
脉 100
颜 100
奔 100
屏 100
摸 100
耕 100
茫 100
侈 100
匮 100
圭 100
攫 100
湖 100
畜 100
肘 100
厘 100
屡 100
缠 100
黯 100
朴 100
毋 100
垂 100
玉 100
魂 100
囤 100
彰 100
宙 100
猪 100
葬 100
酸 100
鸿 100
叠 100
徙 100
尬 100
尴 100
肤 100
腹 100
裨 100
遮 100
闪 100
丈 100
狗 100
艘 100
骄 100
勉 100
撕 100
漂 100
鸣 100
ş 100
噩 100
悦 100
赦 100
筛 100
鸟 100
Â 100
巡 100
绸 100
缪 100
俘 100
咄 100
柴 100
篮 100
* 100
厦 100
憎 100
斜 100
腺 100
鼠 100
Œ 100
喘 100
俩 100
痴 100
聊 100
谅 100
喷 100
忡 100
懂 100
茶 100
螺 100
= 100
刘 100
滩 100
霜 100
劝 100
唱 100
您 100
枢 100
栏 100
睡 100
冈 100
屿 100
敞 100
舌 100
倘 100
绳 100
咒 100
徊 100
徘 100
滴 100
肿 100
衔 100
赂 100
渺 100
谜 100
寺 100
尺 100
彭 100
昆 100
靖 100
啡 100
悠 100
滚 100
瘾 100
伎 100
译 100
‹ 100
倦 100
兜 100
淆 100
怜 100
朔 100
涛 100
酝 100
淹 100
锚 100
饲 100
鼻 100
咖 100
湿 100
纾 100
蒸 100
览 100
仑 100
妹 100
恼 100
棉 100
狼 100
轴 100
愉 100
瞒 100
陶 100
鼎 100
寥 100
烷 100
艇 100
袋 100
澄 100
礁 100
侮 100
删 100
耸 100
株 100
猎 100
裙 100
卑 100
噬 100
嚣 100
涂 100
肮 100
骑 100
旷 100
渊 100
瘟 100
ž 100
匆 100
纺 100
酵 100
嘘 100
梯 100
澜 100
缝 100
谣 100
雀 100
娩 100
瘤 100
郊 100
颂 100
姗 100
稻 100
甩 100
阈 100
惮 100
栖 100
侣 100
坞 100
寅 100
辐 100
陌 100
扑 100
柔 100
诽 100
谤 100
钓 100
疹 100
睁 100
铝 100
ò 100
ō 100
址 100
掏 100
掣 100
琐 100
雾 100
夷 100
珊 100
剔 100
熙 100
犬 100
跻 100
铜 100
兽 100
溉 100
脂 100
鹅 100
± 100
贺 100
冗 100
吵 100
槿 100
¶ 100
墟 100
抉 100
秉 100
鄙 100
{ 100
勘 100
娃 100
殆 100
笨 100
} 100
ı 100
ǧ 100
扯 100
氓 100
汤 100
菅 100
鸦 100
冯 100
壳 100
摒 100
畸 100
瞬 100
啻 100
撼 100
绍 100
罹 100
荐 100
蕴 100
虔 100
沾 100
痹 100
稽 100
窘 100
颖 100
ƒ 100
喝 100
炉 100
爵 100
巫 100
杉 100
讳 100
顷 100
厢 100
嘉 100
崭 100
廊 100
浩 100
溪 100
腕 100
ø 100
斩 100
盎 100
窥 100
肝 100
臂 100
蹂 100
躏 100
逾 100
陪 100
憧 100
憬 100
磋 100
芽 100
醉 100
骇 100
ˆ 100
涡 100
藉 100
§ 100
吾 100
妈 100
帖 100
妖 100
宠 100
琴 100
诡 100
刃 100
县 100
帜 100
斐 100
腿 100
蜂 100
‡ 100
岭 100
矶 100
稿 100
肪 100
莉 100
躁 100
驯 100
齿 100
娅 100
睐 100
稼 100
姐 100
甜 100
胚 100
诫 100
谊 100
鲸 100
乙 100
嫁 100
寓 100
逍 100
‰ 100
媲 100
巾 100
珀 100
亟 100
屑 100
捏 100
捧 100
汀 100
琼 100
聆 100
谦 100
驭 100
俑 100
卵 100
猖 100
盐 100
醇 100
佬 100
夭 100
攸 100
汹 100
眠 100
铸 100
陋 100
炫 100
烹 100
煌 100
祈 100
飘 100
喂 100
獗 100
稚 100
夹 100
嵌 100
拱 100
曙 100
焚 100
肌 100
颓 100
噪 100
嫉 100
殴 100
泻 100
碗 100
秒 100
饪 100
勋 100
恭 100
浸 100
雕 100
垫 100
姑 100
孱 100
盒 100
窟 100
虏 100
诀 100
吻 100
宛 100
懒 100
棍 100
滤 100
睛 100
瞄 100
砸 100
蚁 100
̊ 100
墓 100
挨 100
敛 100
枝 100
绥 100
诋 100
鞋 100
 100
ś 100
斑 100
橙 100
袒 100
骂 100
哮 100
搅 100
蜜 100
逸 100
凑 100
叉 100
嗤 100
斤 100
榨 100
萌 100
悟 100
摘 100
晦 100
泪 100
笃 100
蔬 100
诅 100
踵 100
炒 100
胃 100
圳 100
昏 100
磁 100
祭 100
蕾 100
蚂 100
Ó 100
ی 100
僧 100
喇 100
坑 100
棱 100
潭 100
猫 100
肖 100
茂 100
裹 100
辍 100
Ё 100
匪 100
壑 100
孚 100
梵 100
淋 100
渎 100
鸽 100
¤ 100
丛 100
唾 100
惟 100
愧 100
捆 100
昧 100
祷 100
纱 100
罔 100
芒 100
遴 100
宴 100
暇 100
溺 100
肾 100
蛇 100
― 100
伞 100
傀 100
儡 100
拦 100
撇 100
栋 100
歪 100
犀 100
禽 100
紫 100
跚 100
蹒 100
Ê 100
扔 100
拳 100
浇 100
盼 100
鲨 100
̄ 100
姬 100
帅 100
掷 100
涩 100
疼 100
窒 100
筋 100
绌 100
羡 100
@ 100
奎 100
弦 100
斡 100
晶 100
沼 100
爬 100
肇 100
巢 100
挟 100
朽 100
柳 100
瑚 100
绊 100
绵 100
赵 100
铲 100
陵 100
魏 100
倪 100
喉 100
挝 100
晨 100
氦 100
爪 100
肚 100
胶 100
胸 100
舟 100
Š 100
毅 100
牟 100
吐 100
嘛 100
帽 100
惹 100
盆 100
祥 100
窝 100
粘 100
羁 100
踢 100
郑 100
咋 100
哺 100
弯 100
昨 100
狡 100
̀ 100
咬 100
淫 100
侦 100
惰 100
扁 100
榄 100
肢 100
茅 100
蔡 100
饼 100
● 100
娘 100
懦 100
橄 100
氮 100
湄 100
狐 100
膜 100
伽 100
俾 100
禧 100
羽 100
萝 100
饶 100
彦 100
棕 100
袤 100
贱 100
霉 100
› 100
哨 100
蚕 100
蛊 100
踩 100
迥 100
倚 100
剖 100
拐 100
矫 100
凉 100
啊 100
殿 100
浑 100
磅 100
蝇 100
裤 100
逞 100
钝 100
Î 100
凿 100
勿 100
恳 100
焕 100
玷 100
矩 100
纤 100
亥 100
俯 100
妊 100
娠 100
搏 100
榷 100
滨 100
熬 100
硫 100
稣 100
臃 100
仙 100
刹 100
吕 100
崎 100
巅 100
悼 100
戛 100
浴 100
狄 100
胰 100
俭 100
冤 100
戚 100
昌 100
璃 100
磷 100
肠 100
苟 100
荼 100
藐 100
谭 100
戎 100
扪 100
椅 100
焰 100
猿 100
衬 100
觅 100
陀 100
幌 100
庙 100
恕 100
爽 100
躇 100
鞭 100
傻 100
斧 100
桩 100
氟 100
滕 100
谟 100
踌 100
堤 100
姊 100
婉 100
怯 100
泳 100
矢 100
袱 100
遂 100
锅 100
镀 100
' 100
< 100
̃ 100
剪 100
撬 100
梭 100
橡 100
氯 100
硕 100
禀 100
竿 100
绰 100
贼 100
鹫 100
> 100
 100
厨 100
吝 100
揣 100
杨 100
柄 100
洒 100
浏 100
渥 100
篷 100
趁 100
锻 100
Щ 100
妓 100
晴 100
纹 100
襟 100
诠 100
闯 100
乞 100
寝 100
忏 100
疮 100
痒 100
睦 100
窍 100
竹 100
缉 100
芭 100
镕 100
 100
亩 100
侪 100
寂 100
皂 100
藤 100
觑 100
辕 100
钥 100
锈 100
锤 100
 100
仆 100
兀 100
喧 100
坊 100
婿 100
恣 100
悚 100
溶 100
狠 100
罐 100
茵 100
讦 100
蹶 100
吊 100
娥 100
弭 100
悍 100
拷 100
瘦 100
篱 100
舵 100
苍 100
衫 100
赁 100
趸 100
躬 100
钵 100
¢ 100
® 100
匙 100
咆 100
哄 100
哭 100
孵 100
帆 100
抖 100
沸 100
烙 100
猴 100
猾 100
砂 100
穴 100
竖 100
隙 100
叔 100
暧 100
熔 100
秤 100
稠 100
缄 100
胺 100
酶 100
阪 100
鸭 100
† 100
卧 100
哦 100
喋 100
妒 100
恪 100
枕 100
栗 100
殃 100
泵 100
洼 100
睿 100
篡 100
绞 100
艳 100
辄 100
遑 100
匀 100
哗 100
噤 100
屁 100
敷 100
淀 100
漩 100
焉 100
熄 100
紊 100
缕 100
虾 100
诩 100
谚 100
邸 100
镳 100
刮 100
帷 100
怂 100
杭 100
棺 100
毙 100
浆 100
Ç 100
ā 100
‫ 100
冕 100
奄 100
廓 100
椭 100
毗 100
洽 100
痢 100
耿 100
膝 100
萦 100
诘 100
谕 100
蹊 100
躺 100
轩 100
铅 100
锂 100
闷 100
魄 100
丸 100
吴 100
坟 100
婆 100
惫 100
扇 100
溜 100
滔 100
灶 100
癖 100
腔 100
诟 100
 100
Ÿ 100
啬 100
孜 100
巷 100
恿 100
暑 100
枷 100
梗 100
沛 100
煎 100
燥 100
舶 100
蹴 100
酗 100
陡 100
黜 100
Ø 100
ì 100
啦 100
媚 100
恙 100
惶 100
毯 100
瑰 100
郭 100
雏 100
鹤 100
ż 100
亵 100
函 100
咳 100
嗜 100
戳 100
拭 100
氨 100
沈 100
渲 100
灸 100
疚 100
缛 100
羹 100
隧 100
乖 100
匠 100
抄 100
捣 100
枭 100
梳 100
棚 100
槽 100
殉 100
矮 100
藻 100
诛 100
跛 100
钚 100
鸠 100
龟 100
厕 100
唉 100
恫 100
掺 100
朵 100
柜 100
涸 100
瞎 100
粟 100
粪 100
绎 100
脾 100
蒿 100
İ 100
ε 100
丙 100
侍 100
坷 100
扳 100
楷 100
碾 100
纭 100
耍 100
膀 100
蒋 100
褪 100
郡 100
靶 100
髦 100
Ï 100
̂ 100
呕 100
墅 100
弩 100
拧 100
桎 100
梏 100
棵 100
榈 100
汶 100
玫 100
瑕 100
臆 100
茁 100
驼 100
黛 100
侥 100
咸 100
咽 100
坪 100
妆 100
弓 100
恃 100
沁 100
涓 100
烁 100
疵 100
禅 100
聋 100
袍 100
钳 100
钴 100
鹿 100
冉 100
墉 100
弛 100
朊 100
炙 100
煞 100
痼 100
矣 100
绷 100
翘 100
薯 100
藩 100
蜕 100
躯 100
轿 100
× 100
亘 100
凄 100
剃 100
嗅 100
宋 100
弘 100
弧 100
擂 100
炬 100
爷 100
狩 100
甄 100
皈 100
秃 100
绅 100
膏 100
膳 100
蛛 100
诧 100
赅 100
跋 100
迦 100
雌 100
ű 100
冀 100
凤 100
吟 100
嘎 100
噶 100
囿 100
壕 100
徕 100
怠 100
杞 100
枉 100
渣 100
簿 100
缆 100
翅 100
萃 100
蕉 100
觊 100
讧 100
谙 100
赡 100
锢 100
霾 100
ů 100
兔 100
剿 100
咫 100
唇 100
嚷 100
囹 100
圄 100
坍 100
忱 100
懊 100
摔 100
泼 100
淖 100
漓 100
燎 100
瑙 100
瞪 100
磕 100
笋 100
绒 100
荫 100
觎 100
豹 100
贤 100
蹩 100
铎 100
阂 100
ð 100
ē 100
Ş 100
卒 100
厥 100
夥 100
孰 100
悯 100
愁 100
沥 100
牒 100
狮 100
碱 100
罂 100
逗 100
铃 100
铐 100
骆 100
\ 100
Ô 100
ș 100
ک 100
呐 100
唆 100
寐 100
峭 100
惺 100
晕 100
歹 100
烛 100
烤 100
疤 100
碌 100
祟 100
笛 100
糙 100
缭 100
脖 100
茄 100
诵 100
趟 100
辽 100
韬 100
韵 100
 100
ū 100
俨 100
傅 100
兢 100
啤 100
孽 100
徐 100
昙 100
晃 100
汁 100
沆 100
瀣 100
爸 100
狸 100
畔 100
筒 100
譬 100
赘 100
跪 100
辰 100
颤 100
¦ 100
ř 100
嘱 100
扛 100
捡 100
楔 100
汪 100
漆 100
烩 100
眩 100
睬 100
秽 100
箴 100
芜 100
蜡 100
驴 100
 100
ý 100
侠 100
冥 100
喹 100
垦 100
宵 100
挚 100
攒 100
晒 100
桃 100
煮 100
癫 100
眈 100
芙 100
蔗 100
虹 100
褒 100
诃 100
邃 100
鋘 100
锯 100
镖 100
叨 100
吠 100
噱 100
岔 100
庶 100
拣 100
桀 100
椎 100
泌 100
泣 100
甫 100
砥 100
硝 100
禄 100
纬 100
肋 100
舱 100
菊 100
蝉 100
蝗 100
褓 100
襁 100
讥 100
诲 100
谄 100
贻 100
蹲 100
馅 100
骜 100
鳄 100
Č 100
ě 100
伺 100
侄 100
俊 100
叮 100
吼 100
啥 100
啮 100
掂 100
栽 100
槃 100
灿 100
狙 100
珉 100
痍 100
睽 100
瞥 100
瞧 100
窜 100
簸 100
缸 100
翩 100
臼 100
蝠 100
谩 100
赈 100
铤 100
鞠 100
饽 100
鳌 100
娴 100
娼 100
岑 100
恤 100
挞 100
斋 100
暮 100
殷 100
沧 100
涝 100
琢 100
眨 100
耽 100
迂 100
釜 100
骸 100
鹜 100
¬ 100
▪ 100
佼 100
俏 100
傍 100
喙 100
塘 100
奧 100
屹 100
岿 100
崔 100
愕 100
拂 100
掐 100
晾 100
曰 100
杖 100
涎 100
猥 100
琉 100
瘠 100
矗 100
碟 100
窠 100
绽 100
缮 100
聒 100
胥 100
脔 100
腻 100
蜗 100
蟒 100
钧 100
铉 100
侃 100
僻 100
凰 100
剽 100
妃 100
宕 100
尹 100
岖 100
廖 100
懑 100
戟 100
捅 100
掮 100
沓 100
泾 100
淌 100
渭 100
澡 100
烬 100
燕 100
狈 100
痫 100
盔 100
罄 100
芦 100
茎 100
蔚 100
蜃 100
贞 100
踊 100
踞 100
蹄 100
酌 100
酪 100
闸 100
阉 100
靴 100
饵 100
^ 100
Å 100
ă 100
佑 100
刁 100
卦 100
嫖 100
岳 100
愎 100
拮 100
揪 100
摈 100
攘 100
汞 100
涣 100
涤 100
潦 100
牍 100
猝 100
痊 100
磐 100
笆 100
缀 100
聩 100
肓 100
芸 100
苯 100
菱 100
蛙 100
蝙 100
蠕 100
褐 100
讹 100
赃 100
辣 100
酮 100
鋓 100
鋜 100
钮 100
锌 100
锰 100
阙 100
霆 100
靼 100
鞑 100
魇 100
Ò 100
冶 100
凋 100
夯 100
媾 100
帑 100
帚 100
柿 100
氰 100
沌 100
沪 100
烫 100
烯 100
玄 100
痘 100
睢 100
窿 100
簧 100
苷 100
葱 100
蕞 100
诬 100
谲 100
轧 100
辗 100
铢 100
锥 100
驿 100
鸵 100
 100
乒 100
乾 100
哑 100
唬 100
嚏 100
奂 100
忿 100
擘 100
敝 100
朦 100
椒 100
榴 100
毡 100
沐 100
湛 100
瀑 100
猬 100
皱 100
眷 100
砌 100
碧 100
穹 100
簇 100
翔 100
肴 100
胧 100
莲 100
薛 100
蛾 100
谀 100
谑 100
酱 100
镣 100
霄 100
骼 100
麾 100
黵 100
õ 100
乓 100
啃 100
嗽 100
嘈 100
嚼 100
姨 100
孢 100
拗 100
泯 100
烃 100
瘁 100
癣 100
砝 100
禹 100
纂 100
纰 100
缰 100
聂 100
膺 100
臻 100
舛 100
茧 100
荧 100
葫 100
葵 100
藕 100
蜘 100
踯 100
轶 100
陨 100
馁 100
鱿 100
鳕 100
鳞 100
黏 100
 100
Φ 100
Χ 100
≤ 100
─ 100
丐 100
呃 100
哂 100
囱 100
堑 100
寇 100
岐 100
庐 100
彬 100
忾 100
惴 100
捂 100
揉 100
斟 100
曹 100
栈 100
棣 100
槟 100
歼 100
浙 100
涟 100
漪 100
疱 100
疽 100
瞰 100
秦 100
籽 100
粤 100
粥 100
糜 100
腮 100
芥 100
荆 100
莓 100
虞 100
讷 100
豚 100
豢 100
躅 100
迸 100
逛 100
遐 100
遝 100
醋 100
醛 100
铛 100
锒 100
隅 100
颅 100
鳍 100
黔 100
黚 100
黩 100
ő 100
ό 100
仕 100
刨 100
叟 100
哇 100
坤 100
壶 100
孀 100
孪 100
屎 100
岂 100
帘 100
庾 100
徽 100
怼 100
惭 100
撩 100
於 100
栓 100
桂 100
沂 100
灼 100
犁 100
犷 100
瓷 100
筏 100
糅 100
耄 100
薇 100
螂 100
袁 100
诿 100
贮 100
跤 100
轫 100
逡 100
邱 100
邵 100
酯 100
钾 100
镛 100
靓 100
骛 100
鹏 100
麓 100
麟 100
ŏ 100
₹ 100
俎 100
倔 100
偕 100
僭 100
兮 100
叭 100
呵 100
嘀 100
尉 100
彗 100
抒 100
拽 100
揄 100
揶 100
汐 100
淤 100
湎 100
炽 100
琅 100
瑜 100
盏 100
瞠 100
砾 100
碘 100
祀 100
竣 100
笞 100
篑 100
纫 100
羚 100
耋 100
脓 100
蛰 100
蝴 100
蝶 100
蟑 100
觞 100
谳 100
貉 100
遁 100
酣 100
鋍 100
鋝 100
锏 100
锣 100
镍 100
雳 100
霹 100
颐 100
馏 100
馑 100
骎 100
黨 100
 100
ď 100
٠ 100
٢ 100
ھ 100
〕 100
刽 100
嚎 100
姚 100
寰 100
屯 100
忒 100
恸 100
惬 100
搀 100
撷 100
旭 100
梢 100
樱 100
殚 100
氚 100
沽 100
浊 100
瀚 100
烘 100
熏 100
爹 100
狞 100
秸 100
箍 100
羸 100
腑 100
膦 100
臬 100
舔 100
芋 100
茉 100
茜 100
莹 100
蔼 100
讣 100
诙 100
谔 100
谛 100
趾 100
跷 100
钨 100
铩 100
镰 100
镶 100
阑 100
陲 100
霖 100
骰 100
鹉 100
鹦 100
 100
【 100
】 100
〔 100
亢 100
佃 100
佯 100
侏 100
儆 100
匝 100
厩 100
吏 100
呱 100
呻 100
咙 100
咯 100
哉 100
哔 100
唠 100
啧 100
嗣 100
嘶 100
垢 100
奚 100
娇 100
娶 100
孳 100
幡 100
弋 100
徉 100
徜 100
徳 100
怡 100
惋 100
惘 100
懵 100
戾 100
拈 100
拴 100
捶 100
搪 100
昵 100
昼 100
暹 100
栩 100
榭 100
橱 100
牡 100
狰 100
瘸 100
矜 100
砷 100
祛 100
篝 100
篪 100
绣 100
羟 100
腓 100
膊 100
芳 100
茬 100
莠 100
蒲 100
虻 100
蚤 100
蚱 100
蜒 100
蜚 100
蜿 100
袜 100
裴 100
蹋 100
蹿 100
逅 100
邂 100
鄂 100
鋒 100
钋 100
铂 100
镌 100
韪 100
鰊 100
ī 100
Ő 100
・ 100
侬 100
倭 100
偃 100
勺 100
匣 100
卉 100
叩 100
啄 100
啉 100
啼 100
嗓 100
婊 100
嫡 100
嬉 100
巍 100
忐 100
忑 100
恍 100
悸 100
拇 100
挛 100
搔 100
擒 100
攥 100
敖 100
暨 100
栅 100
梨 100
楠 100
榻 100
樟 100
淳 100
湃 100
湮 100
溅 100
澎 100
濑 100
炊 100
焊 100
焖 100
熵 100
玲 100
珑 100
琦 100
町 100
疡 100
疥 100
疴 100
痉 100
皿 100
眦 100
睚 100
砺 100
秆 100
筝 100
籁 100
粱 100
缈 100
缥 100
羔 100
耘 100
肛 100
胳 100
舅 100
苔 100
茱 100
菁 100
菇 100
蘑 100
蛀 100
蛎 100
蜥 100
蜴 100
褫 100
踝 100
钠 100
钽 100
飚 100
饷 100
骷 100
髅 100
鲑 100
黠 100
鼬 100
 100
 100
ą 100
Ć 100
Đ 100
ľ 100
Ŕ 100
ؘ 100
١ 100
٣ 100
‛ 100
‧ 100
↔ 100
俟 100
凛 100
凳 100
刍 100
匍 100
匐 100
卤 100
卯 100
叵 100
呛 100
呜 100
咀 100
咕 100
哟 100
唳 100
嗡 100
噎 100
夙 100
妪 100
娓 100
婶 100
媛 100
媳 100
孝 100
幢 100
庖 100
彷 100
徇 100
恬 100
慵 100
憩 100
扈 100
扉 100
扒 100
拎 100
捺 100
搓 100
擢 100
斓 100
昊 100
曳 100
柠 100
桨 100
椰 100
橘 100
檀 100
檬 100
氘 100
汝 100
涕 100
渝 100
熠 100
熨 100
犒 100
痞 100
痰 100
瘴 100
皎 100
眺 100
睾 100
稔 100
稷 100
窑 100
竽 100
笹 100
絮 100
翌 100
耙 100
耦 100
脯 100
膛 100
臀 100
舐 100
葩 100
葺 100
蒜 100
蜱 100
衮 100
謑 100
谆 100
谶 100
豌 100
蹦 100
酚 100
鋖 100
鏖 100
钍 100
钙 100
铬 100
镁 100
镉 100
霞 100
顸 100
颟 100
馊 100
髋 100
鰃 100
鰄 100
鲔 100
鳐 100
黡 100
龃 100
龉 100
龊 100
龌 100
 100
～ 100
ė 100
ˇ 100
І 100
亭 100
伶 100
剐 100
劈 100
匕 100
吩 100
呓 100
咏 100
咐 100
咧 100
咱 100
哩 100
嗑 100
嗝 100
嘟 100
囔 100
垠 100
埚 100
墩 100
壹 100
奕 100
孺 100
寞 100
尧 100
崴 100
嵘 100
幄 100
幺 100
恺 100
愠 100
憋 100
抠 100
拌 100
挈 100
捭 100
掖 100
掰 100
掸 100
揩 100
搡 100
撸 100
晖 100
晟 100
杏 100
枰 100
桅 100
桐 100
梓 100
梧 100
樊 100
檄 100
檐 100
泞 100
浚 100
涮 100
淇 100
淮 100
滇 100
澈 100
烽 100
獭 100
玺 100
琛 100
瓢 100
甥 100
瘪 100
眶 100
碲 100
磺 100
祇 100
筱 100
篓 100
纣 100
绚 100
翠 100
肼 100
脐 100
腆 100
舀 100
茹 100
荏 100
荟 100
蔻 100
薰 100
藜 100
蚌 100
蜓 100
蜻 100
蝎 100
襄 100
诓 100
赊 100
赳 100
趄 100
趔 100
趴 100
跄 100
跺 100
踉 100
蹭 100
辘 100
酰 100
钛 100
钯 100
铰 100
阖 100
阮 100
陛 100
鞅 100
鞥 100
驮 100
骡 100
髙 100
鰩 100
鲣 100
鲼 100
鳃 100
鸩 100
鹊 100
鹬 100
黝 100
 100
 100
 100
Ë 100
Ł 100
Ś 100
ȃ 100
ʿ 100
̆ 100
β 100
і 100
ґ 100
֤ 100
٥ 100
٦ 100
ڤ 100
ہ 100
ấ 100
ứ 100
ὀ 100
⁠ 100
「 100
」 100
丫 100
伥 100
佗 100
侩 100
俚 100
倏 100
倨 100
內 100
冢 100
凹 100
厮 100
叱 100
叼 100
叽 100
吭 100
呗 100
咤 100
哎 100
哒 100
哼 100
唁 100
唑 100
啜 100
啪 100
啰 100
啷 100
喑 100
喳 100
喽 100
嗒 100
嗟 100
嗨 100
嗯 100
嗷 100
嘿 100
坩 100
堰 100
妞 100
娄 100
娑 100
婕 100
婢 100
孛 100
寮 100
屐 100
岱 100
峥 100
帙 100
帼 100
庚 100
彪 100
徨 100
忝 100
忸 100
怅 100
怙 100
悛 100
悴 100
愣 100
憔 100
戕 100
捋 100
掇 100
揍 100
揿 100
撺 100
晷 100
札 100
杓 100
柑 100
栉 100
桓 100
楞 100
槁 100
槌 100
橹 100
殇 100
殒 100
泗 100
泱 100
洄 100
浃 100
淅 100
渍 100
湍 100
溥 100
溴 100
滓 100
炖 100
炯 100
烨 100
焙 100
牾 100
犊 100
狒 100
猁 100
猞 100
珐 100
琏 100
琪 100
璀 100
璜 100
璞 100
璨 100
瓣 100
瘘 100
癔 100
皑 100
皞 100
盅 100
睥 100
睨 100
瞌 100
砒 100
硒 100
磊 100
祢 100
秧 100
稅 100
穗 100
窖 100
笈 100
筷 100
箝 100
粕 100
綏 100
維 100
绦 100
缤 100
翎 100
翡 100
耆 100
肽 100
胱 100
艮 100
茲 100
荀 100
荦 100
莅 100
莞 100
莺 100
菠 100
萸 100
葆 100
蓉 100
蕊 100
藿 100
蛉 100
蛔 100
蛹 100
蜢 100
蜷 100
蝼 100
蝾 100
螃 100
螈 100
蟹 100
蟾 100
蠵 100
衲 100
袂 100
裘 100
褥 100
訇 100
诏 100
诣 100
诨 100
诶 100
谧 100
豺 100
赝 100
跎 100
蹉 100
蹑 100
蹬 100
躍 100
辫 100
迩 100
遛 100
遢 100
遪 100
遲 100
遽 100
邋 100
邑 100
酥 100
醍 100
醐 100
醺 100
鋑 100
鋞 100
鋟 100
钏 100
钕 100
钶 100
钼 100
铆 100
铵 100
镐 100
镝 100
镯 100
闺 100
闽 100
阎 100
陕 100
霓 100
鞍 100
颌 100
颚 100
颞 100
颦 100
颧 100
飒 100
饯 100
饺 100
馋 100
馒 100
馨 100
鬃 100
鰀 100
鰈 100
鰎 100
鲞 100
鲟 100
鸷 100
鹀 100
麋 100
黮 100
黷 100
鼹 100
 100
ň 100
ơ 100
ư 100
ț 100
̶ 100
α 100
٤ 100
٨ 100
٩ 100
پ 100
ễ 100
₽ 100
の 100
伉 100
佚 100
佞 100
佰 100
佻 100
俐 100
俞 100
俦 100
俪 100
俳 100
俸 100
俺 100
倜 100
傥 100
冽 100
刈 100
剁 100
剞 100
創 100
劂 100
匾 100
叻 100
吡 100
吮 100
呀 100
呲 100
呸 100
哽 100
唔 100
啕 100
喔 100
喱 100
嗔 100
嗖 100
嗦 100
嗪 100
嘻 100
囧 100
囫 100
囵 100
圃 100
圉 100
圜 100
圩 100
坯 100
垣 100
堙 100
増 100
壬 100
奁 100
妯 100
姣 100
娈 100
娌 100
娟 100
娿 100
嫂 100
嬴 100
孑 100
孓 100
宥 100
屉 100
岘 100
岬 100
峇 100
峋 100
峪 100
嶙 100
幂 100
弑 100
彝 100
忋 100
忖 100
忤 100
忪 100
怆 100
怦 100
怩 100
恚 100
惆 100
懋 100
戍 100
扥 100
抡 100
拄 100
捱 100
掳 100
掴 100
揖 100
揠 100
搂 100
搐 100
摁 100
摹 100
撂 100
撵 100
擞 100
敉 100
敕 100
斌 100
旃 100
昉 100
昱 100
昴 100
暄 100
曦 100
杳 100
杵 100
枞 100
枫 100
柚 100
桁 100
桔 100
桦 100
椁 100
椟 100
榉 100
樽 100
殁 100
殄 100
殍 100
殡 100
氅 100
氖 100
氙 100
氡 100
氪 100
汕 100
汜 100
泮 100
淑 100
淬 100
淼 100
減 100
渤 100
溘 100
漱 100
潇 100
潢 100
濡 100
燧 100
牦 100
犸 100
狍 100
猕 100
獒 100
獾 100
琥 100
琵 100
璇 100
璧 100
環 100
瓴 100
疙 100
疝 100
疬 100
疸 100
痂 100
痨 100
瘙 100
瘢 100
瘩 100
皋 100
皓 100
盥 100
盹 100
瞟 100
瞭 100
瞳 100
矍 100
矽 100
砧 100
砭 100
砰 100
硼 100
碉 100
碜 100
祁 100
祠 100
祺 100
禾 100
秣 100
窦 100
竺 100
笠 100
笫 100
箬 100
簌 100
糯 100
給 100
綮 100
繽 100
纶 100
缎 100
缢 100
罅 100
羌 100
羲 100
耷 100
肱 100
胍 100
胤 100
胯 100
脍 100
腋 100
腌 100
腩 100
腱 100
舷 100
艄 100
艿 100
芹 100
苇 100
苑 100
苒 100
荚 100
荤 100
莒 100
莩 100
菩 100
萊 100
萩 100
葚 100
蓖 100
蔫 100
薩 100
藓 100
蘼 100
虱 100
蚪 100
蛤 100
蜇 100
蜊 100
蜍 100
蝌 100
螨 100
螳 100
蟀 100
蟊 100
蟋 100
蠹 100
衙 100
衿 100
裆 100
裱 100
裳 100
褂 100
褛 100
褴 100
褶 100
觐 100
誊 100
讫 100
讴 100
诌 100
诤 100
谏 100
谘 100
貘 100
赓 100
赭 100
跬 100
跸 100
踟 100
踱 100
踹 100
蹙 100
蹚 100
蹰 100
蹼 100
轱 100
辡 100
逋 100
遨 100
邡 100
邢 100
邬 100
郴 100
鄢 100
鄱 100
酐 100
酩 100
钌 100
钸 100
铄 100
铈 100
铍 100
铒 100
铯 100
铱 100
铿 100
锃 100
锄 100
锗 100
锱 100
锵 100
锹 100
镓 100
镴 100
闰 100
阡 100
陴 100
隼 100
雁 100
雉 100
雍 100
霰 100
靈 100
鞘 100
颊 100
餍 100
餮 100
饕 100
饴 100
馐 100
馕 100
馬 100
驽 100
骋 100
骏 100
骐 100
